#include "magic_wand_model_data.h"

// We need to keep the data array aligned on some architectures.
#ifdef __has_attribute
#define HAVE_ATTRIBUTE(x) __has_attribute(x)
#else
#define HAVE_ATTRIBUTE(x) 0
#endif
#if HAVE_ATTRIBUTE(aligned) || (defined(__GNUC__) && !defined(__clang__))
#define DATA_ALIGN_ATTRIBUTE __attribute__((aligned(4)))
#else
#define DATA_ALIGN_ATTRIBUTE
#endif

const unsigned char g_magic_wand_model_data[] DATA_ALIGN_ATTRIBUTE = {
  // Paste the data of the char array in `src/model.cc` here
  0x08, 0x00, 0x00, 0x00, 0x54, 0x46, 0x4c, 0x33, 0x62, 0xff, 0xff, 0xff,
  0x03, 0x00, 0x00, 0x00, 0x10, 0x00, 0x00, 0x00, 0x24, 0x00, 0x00, 0x00,
  0x78, 0x00, 0x00, 0x00, 0x24, 0x00, 0x00, 0x00, 0x05, 0x00, 0x00, 0x00,
  0x78, 0x05, 0x00, 0x00, 0xb0, 0x04, 0x00, 0x00, 0xe0, 0x02, 0x00, 0x00,
  0x60, 0x02, 0x00, 0x00, 0x54, 0x01, 0x00, 0x00, 0x01, 0x00, 0x00, 0x00,
  0x78, 0x00, 0x00, 0x00, 0x13, 0x00, 0x00, 0x00, 0xd4, 0x2f, 0x00, 0x00,
  0xd0, 0x2f, 0x00, 0x00, 0xdc, 0x2e, 0x00, 0x00, 0x68, 0x2e, 0x00, 0x00,
  0xfc, 0x2d, 0x00, 0x00, 0xac, 0x11, 0x00, 0x00, 0x98, 0x10, 0x00, 0x00,
  0xbc, 0x0e, 0x00, 0x00, 0x60, 0x06, 0x00, 0x00, 0xfc, 0x05, 0x00, 0x00,
  0x78, 0x05, 0x00, 0x00, 0xa8, 0x2f, 0x00, 0x00, 0xa4, 0x2f, 0x00, 0x00,
  0xa0, 0x2f, 0x00, 0x00, 0x9c, 0x2f, 0x00, 0x00, 0x98, 0x2f, 0x00, 0x00,
  0x94, 0x2f, 0x00, 0x00, 0x90, 0x2f, 0x00, 0x00, 0x8c, 0x2f, 0x00, 0x00,
  0x0f, 0x00, 0x00, 0x00, 0x4d, 0x4c, 0x49, 0x52, 0x20, 0x43, 0x6f, 0x6e,
  0x76, 0x65, 0x72, 0x74, 0x65, 0x64, 0x2e, 0x00, 0x00, 0x00, 0x0e, 0x00,
  0x18, 0x00, 0x04, 0x00, 0x08, 0x00, 0x0c, 0x00, 0x10, 0x00, 0x14, 0x00,
  0x0e, 0x00, 0x00, 0x00, 0x14, 0x00, 0x00, 0x00, 0x5c, 0x00, 0x00, 0x00,
  0x60, 0x00, 0x00, 0x00, 0x64, 0x00, 0x00, 0x00, 0x84, 0x00, 0x00, 0x00,
  0x12, 0x00, 0x00, 0x00, 0x04, 0x2f, 0x00, 0x00, 0xa0, 0x2e, 0x00, 0x00,
  0xf8, 0x2d, 0x00, 0x00, 0x98, 0x2d, 0x00, 0x00, 0x30, 0x2d, 0x00, 0x00,
  0xdc, 0x10, 0x00, 0x00, 0xc0, 0x0f, 0x00, 0x00, 0xe4, 0x0d, 0x00, 0x00,
  0xa0, 0x05, 0x00, 0x00, 0x3c, 0x05, 0x00, 0x00, 0xb0, 0x04, 0x00, 0x00,
  0xe8, 0x03, 0x00, 0x00, 0x38, 0x03, 0x00, 0x00, 0xa4, 0x02, 0x00, 0x00,
  0x10, 0x02, 0x00, 0x00, 0x90, 0x01, 0x00, 0x00, 0xfc, 0x00, 0x00, 0x00,
  0x80, 0x00, 0x00, 0x00, 0x01, 0x00, 0x00, 0x00, 0x00, 0x00, 0x00, 0x00,
  0x01, 0x00, 0x00, 0x00, 0x11, 0x00, 0x00, 0x00, 0x08, 0x00, 0x00, 0x00,
  0x1c, 0x04, 0x00, 0x00, 0x58, 0x03, 0x00, 0x00, 0xc8, 0x02, 0x00, 0x00,
  0x24, 0x02, 0x00, 0x00, 0xac, 0x01, 0x00, 0x00, 0x10, 0x01, 0x00, 0x00,
  0x94, 0x00, 0x00, 0x00, 0x10, 0x00, 0x00, 0x00, 0x04, 0x00, 0x00, 0x00,
  0x6d, 0x61, 0x69, 0x6e, 0x00, 0x00, 0x00, 0x00, 0x8e, 0xff, 0xff, 0xff,
  0x00, 0x00, 0x00, 0x09, 0x04, 0x00, 0x00, 0x00, 0x1c, 0x00, 0x00, 0x00,
  0x10, 0x00, 0x00, 0x00, 0x04, 0x00, 0x00, 0x00, 0x4e, 0xd2, 0xff, 0xff,
  0x00, 0x00, 0x80, 0x3f, 0x01, 0x00, 0x00, 0x00, 0x11, 0x00, 0x00, 0x00,
  0x01, 0x00, 0x00, 0x00, 0x10, 0x00, 0x00, 0x00, 0xf6, 0xfb, 0xff, 0xff,
  0x00, 0x00, 0x00, 0x19, 0x01, 0x00, 0x00, 0x00, 0xce, 0xd1, 0xff, 0xff,
  0x10, 0x00, 0x00, 0x00, 0x12, 0x00, 0x00, 0x00, 0x14, 0x00, 0x00, 0x00,
  0x20, 0x00, 0x00, 0x00, 0x02, 0x00, 0x00, 0x00, 0x01, 0x00, 0x00, 0x00,
  0x03, 0x00, 0x00, 0x00, 0x08, 0x00, 0x00, 0x00, 0x49, 0x64, 0x65, 0x6e,
  0x74, 0x69, 0x74, 0x79, 0x00, 0x00, 0x00, 0x00, 0x08, 0xd2, 0xff, 0xff,
  0x00, 0x00, 0x0e, 0x00, 0x18, 0x00, 0x08, 0x00, 0x0c, 0x00, 0x10, 0x00,
  0x07, 0x00, 0x14, 0x00, 0x0e, 0x00, 0x00, 0x00, 0x00, 0x00, 0x00, 0x08,
  0x03, 0x00, 0x00, 0x00, 0x18, 0x00, 0x00, 0x00, 0x0c, 0x00, 0x00, 0x00,
  0x04, 0x00, 0x00, 0x00, 0xdc, 0xd1, 0xff, 0xff, 0x01, 0x00, 0x00, 0x00,
  0x10, 0x00, 0x00, 0x00, 0x03, 0x00, 0x00, 0x00, 0x0f, 0x00, 0x00, 0x00,
  0x05, 0x00, 0x00, 0x00, 0x02, 0x00, 0x00, 0x00, 0x46, 0xd2, 0xff, 0xff,
  0x10, 0x00, 0x00, 0x00, 0x11, 0x00, 0x00, 0x00, 0x14, 0x00, 0x00, 0x00,
  0x30, 0x00, 0x00, 0x00, 0x02, 0x00, 0x00, 0x00, 0x01, 0x00, 0x00, 0x00,
  0x03, 0x00, 0x00, 0x00, 0x1a, 0x00, 0x00, 0x00, 0x73, 0x65, 0x71, 0x75,
  0x65, 0x6e, 0x74, 0x69, 0x61, 0x6c, 0x2f, 0x64, 0x65, 0x6e, 0x73, 0x65,
  0x5f, 0x31, 0x2f, 0x42, 0x69, 0x61, 0x73, 0x41, 0x64, 0x64, 0x00, 0x00,
  0x38, 0xd2, 0xff, 0xff, 0xd6, 0xfd, 0xff, 0xff, 0x00, 0x00, 0x00, 0x08,
  0x03, 0x00, 0x00, 0x00, 0x24, 0x00, 0x00, 0x00, 0x18, 0x00, 0x00, 0x00,
  0x0c, 0x00, 0x00, 0x00, 0x00, 0x00, 0x06, 0x00, 0x08, 0x00, 0x07, 0x00,
  0x06, 0x00, 0x00, 0x00, 0x00, 0x00, 0x00, 0x01, 0x01, 0x00, 0x00, 0x00,
  0x0f, 0x00, 0x00, 0x00, 0x03, 0x00, 0x00, 0x00, 0x0e, 0x00, 0x00, 0x00,
  0x04, 0x00, 0x00, 0x00, 0x01, 0x00, 0x00, 0x00, 0xfe, 0xfc, 0xff, 0xff,
  0x00, 0x00, 0x00, 0x09, 0x01, 0x00, 0x00, 0x00, 0xd6, 0xd2, 0xff, 0xff,
  0x10, 0x00, 0x00, 0x00, 0x10, 0x00, 0x00, 0x00, 0x14, 0x00, 0x00, 0x00,
  0x2c, 0x00, 0x00, 0x00, 0x02, 0x00, 0x00, 0x00, 0x01, 0x00, 0x00, 0x00,
  0x10, 0x00, 0x00, 0x00, 0x15, 0x00, 0x00, 0x00, 0x73, 0x65, 0x71, 0x75,
  0x65, 0x6e, 0x74, 0x69, 0x61, 0x6c, 0x2f, 0x64, 0x65, 0x6e, 0x73, 0x65,
  0x2f, 0x52, 0x65, 0x6c, 0x75, 0x00, 0x00, 0x00, 0x1c, 0xd3, 0xff, 0xff,
  0x00, 0x00, 0x0a, 0x00, 0x10, 0x00, 0x04, 0x00, 0x08, 0x00, 0x0c, 0x00,
  0x0a, 0x00, 0x00, 0x00, 0x02, 0x00, 0x00, 0x00, 0x10, 0x00, 0x00, 0x00,
  0x04, 0x00, 0x00, 0x00, 0x01, 0x00, 0x00, 0x00, 0x0e, 0x00, 0x00, 0x00,
  0x02, 0x00, 0x00, 0x00, 0x0d, 0x00, 0x00, 0x00, 0x03, 0x00, 0x00, 0x00,
  0x7a, 0xfd, 0xff, 0xff, 0x00, 0x00, 0x00, 0x16, 0x01, 0x00, 0x00, 0x00,
  0x52, 0xd3, 0xff, 0xff, 0x10, 0x00, 0x00, 0x00, 0x0f, 0x00, 0x00, 0x00,
  0x14, 0x00, 0x00, 0x00, 0x30, 0x00, 0x00, 0x00, 0x02, 0x00, 0x00, 0x00,
  0x01, 0x00, 0x00, 0x00, 0x70, 0x00, 0x00, 0x00, 0x1a, 0x00, 0x00, 0x00,
  0x73, 0x65, 0x71, 0x75, 0x65, 0x6e, 0x74, 0x69, 0x61, 0x6c, 0x2f, 0x66,
  0x6c, 0x61, 0x74, 0x74, 0x65, 0x6e, 0x2f, 0x52, 0x65, 0x73, 0x68, 0x61,
  0x70, 0x65, 0x00, 0x00, 0x44, 0xd3, 0xff, 0xff, 0xe2, 0xfe, 0xff, 0xff,
  0x00, 0x00, 0x00, 0x05, 0x01, 0x00, 0x00, 0x00, 0x38, 0x00, 0x00, 0x00,
  0x2c, 0x00, 0x00, 0x00, 0x14, 0x00, 0x00, 0x00, 0x00, 0x00, 0x0e, 0x00,
  0x14, 0x00, 0x00, 0x00, 0x10, 0x00, 0x0c, 0x00, 0x08, 0x00, 0x04, 0x00,
  0x0e, 0x00, 0x00, 0x00, 0x03, 0x00, 0x00, 0x00, 0x01, 0x00, 0x00, 0x00,
  0x03, 0x00, 0x00, 0x00, 0x01, 0x00, 0x00, 0x00, 0x01, 0x00, 0x00, 0x00,
  0x0d, 0x00, 0x00, 0x00, 0x01, 0x00, 0x00, 0x00, 0x0c, 0x00, 0x00, 0x00,
  0xe2, 0xd3, 0xff, 0xff, 0x10, 0x00, 0x00, 0x00, 0x0e, 0x00, 0x00, 0x00,
  0x1c, 0x00, 0x00, 0x00, 0x40, 0x00, 0x00, 0x00, 0x04, 0x00, 0x00, 0x00,
  0x01, 0x00, 0x00, 0x00, 0x07, 0x00, 0x00, 0x00, 0x01, 0x00, 0x00, 0x00,
  0x10, 0x00, 0x00, 0x00, 0x22, 0x00, 0x00, 0x00, 0x73, 0x65, 0x71, 0x75,
  0x65, 0x6e, 0x74, 0x69, 0x61, 0x6c, 0x2f, 0x6d, 0x61, 0x78, 0x5f, 0x70,
  0x6f, 0x6f, 0x6c, 0x69, 0x6e, 0x67, 0x32, 0x64, 0x5f, 0x31, 0x2f, 0x4d,
  0x61, 0x78, 0x50, 0x6f, 0x6f, 0x6c, 0x00, 0x00, 0xe4, 0xd3, 0xff, 0xff,
  0xc2, 0xfe, 0xff, 0xff, 0x00, 0x00, 0x00, 0x01, 0x24, 0x00, 0x00, 0x00,
  0x18, 0x00, 0x00, 0x00, 0x04, 0x00, 0x00, 0x00, 0xb4, 0xfe, 0xff, 0xff,
  0x01, 0x00, 0x00, 0x00, 0x01, 0x00, 0x00, 0x00, 0x00, 0x00, 0x00, 0x01,
  0x01, 0x00, 0x00, 0x00, 0x0c, 0x00, 0x00, 0x00, 0x03, 0x00, 0x00, 0x00,
  0x0b, 0x00, 0x00, 0x00, 0x07, 0x00, 0x00, 0x00, 0x09, 0x00, 0x00, 0x00,
  0x72, 0xd4, 0xff, 0xff, 0x10, 0x00, 0x00, 0x00, 0x0d, 0x00, 0x00, 0x00,
  0x1c, 0x00, 0x00, 0x00, 0x2c, 0x00, 0x00, 0x00, 0x04, 0x00, 0x00, 0x00,
  0x01, 0x00, 0x00, 0x00, 0x15, 0x00, 0x00, 0x00, 0x01, 0x00, 0x00, 0x00,
  0x10, 0x00, 0x00, 0x00, 0x0c, 0x00, 0x00, 0x00, 0x74, 0x66, 0x6c, 0x2e,
  0x63, 0x6f, 0x6e, 0x76, 0x5f, 0x32, 0x64, 0x31, 0x00, 0x00, 0x00, 0x00,
  0xb8, 0xd4, 0xff, 0xff, 0x00, 0x00, 0x0e, 0x00, 0x1a, 0x00, 0x08, 0x00,
  0x0c, 0x00, 0x10, 0x00, 0x07, 0x00, 0x14, 0x00, 0x0e, 0x00, 0x00, 0x00,
  0x00, 0x00, 0x00, 0x05, 0x01, 0x00, 0x00, 0x00, 0x3c, 0x00, 0x00, 0x00,
  0x30, 0x00, 0x00, 0x00, 0x14, 0x00, 0x00, 0x00, 0x00, 0x00, 0x0e, 0x00,
  0x18, 0x00, 0x17, 0x00, 0x10, 0x00, 0x0c, 0x00, 0x08, 0x00, 0x04, 0x00,
  0x0e, 0x00, 0x00, 0x00, 0x03, 0x00, 0x00, 0x00, 0x03, 0x00, 0x00, 0x00,
  0x03, 0x00, 0x00, 0x00, 0x03, 0x00, 0x00, 0x00, 0x00, 0x00, 0x00, 0x01,
  0x01, 0x00, 0x00, 0x00, 0x0b, 0x00, 0x00, 0x00, 0x01, 0x00, 0x00, 0x00,
  0x0a, 0x00, 0x00, 0x00, 0x46, 0xff, 0xff, 0xff, 0x00, 0x00, 0x00, 0x11,
  0x01, 0x00, 0x00, 0x00, 0x1e, 0xd5, 0xff, 0xff, 0x10, 0x00, 0x00, 0x00,
  0x0c, 0x00, 0x00, 0x00, 0x1c, 0x00, 0x00, 0x00, 0x40, 0x00, 0x00, 0x00,
  0x04, 0x00, 0x00, 0x00, 0x01, 0x00, 0x00, 0x00, 0x15, 0x00, 0x00, 0x00,
  0x01, 0x00, 0x00, 0x00, 0x08, 0x00, 0x00, 0x00, 0x20, 0x00, 0x00, 0x00,
  0x73, 0x65, 0x71, 0x75, 0x65, 0x6e, 0x74, 0x69, 0x61, 0x6c, 0x2f, 0x6d,
  0x61, 0x78, 0x5f, 0x70, 0x6f, 0x6f, 0x6c, 0x69, 0x6e, 0x67, 0x32, 0x64,
  0x2f, 0x4d, 0x61, 0x78, 0x50, 0x6f, 0x6f, 0x6c, 0x00, 0x00, 0x00, 0x00,
  0x78, 0xd5, 0xff, 0xff, 0x00, 0x00, 0x0e, 0x00, 0x14, 0x00, 0x00, 0x00,
  0x08, 0x00, 0x0c, 0x00, 0x07, 0x00, 0x10, 0x00, 0x0e, 0x00, 0x00, 0x00,
  0x00, 0x00, 0x00, 0x01, 0x30, 0x00, 0x00, 0x00, 0x24, 0x00, 0x00, 0x00,
  0x10, 0x00, 0x00, 0x00, 0x0c, 0x00, 0x10, 0x00, 0x00, 0x00, 0x04, 0x00,
  0x08, 0x00, 0x0f, 0x00, 0x0c, 0x00, 0x00, 0x00, 0x01, 0x00, 0x00, 0x00,
  0x01, 0x00, 0x00, 0x00, 0x00, 0x00, 0x00, 0x01, 0x01, 0x00, 0x00, 0x00,
  0x0a, 0x00, 0x00, 0x00, 0x03, 0x00, 0x00, 0x00, 0x00, 0x00, 0x00, 0x00,
  0x06, 0x00, 0x00, 0x00, 0x08, 0x00, 0x00, 0x00, 0x00, 0x00, 0x0a, 0x00,
  0x0c, 0x00, 0x07, 0x00, 0x00, 0x00, 0x08, 0x00, 0x0a, 0x00, 0x00, 0x00,
  0x00, 0x00, 0x00, 0x03, 0x01, 0x00, 0x00, 0x00, 0xe2, 0xd5, 0xff, 0xff,
  0x10, 0x00, 0x00, 0x00, 0x0b, 0x00, 0x00, 0x00, 0x1c, 0x00, 0x00, 0x00,
  0x28, 0x00, 0x00, 0x00, 0x04, 0x00, 0x00, 0x00, 0x01, 0x00, 0x00, 0x00,
  0x40, 0x00, 0x00, 0x00, 0x03, 0x00, 0x00, 0x00, 0x08, 0x00, 0x00, 0x00,
  0x0b, 0x00, 0x00, 0x00, 0x74, 0x66, 0x6c, 0x2e, 0x63, 0x6f, 0x6e, 0x76,
  0x5f, 0x32, 0x64, 0x00, 0xcc, 0xd5, 0xff, 0xff, 0xc2, 0xd6, 0xff, 0xff,
  0x04, 0x00, 0x00, 0x00, 0x40, 0x00, 0x00, 0x00, 0x39, 0x00, 0xab, 0xbe,
  0x39, 0x58, 0x81, 0x3d, 0xe4, 0x6a, 0x18, 0xbf, 0x54, 0x9f, 0x2b, 0x40,
  0x52, 0x50, 0xcb, 0x3d, 0x8d, 0x22, 0xb4, 0x3e, 0x2e, 0xaa, 0x1d, 0xbf,
  0x13, 0xe2, 0xea, 0x3f, 0xdd, 0xad, 0xfc, 0xbe, 0x97, 0xb4, 0x62, 0xbf,
  0x88, 0xda, 0x4e, 0xbc, 0x0c, 0x5a, 0x75, 0xbf, 0xe0, 0x38, 0x90, 0xbf,
  0x77, 0x6a, 0x23, 0x3f, 0xa3, 0xc5, 0xfc, 0xbe, 0x27, 0xd5, 0x93, 0x40,
  0x6a, 0xd6, 0xff, 0xff, 0x10, 0x00, 0x00, 0x00, 0x0a, 0x00, 0x00, 0x00,
  0x10, 0x00, 0x00, 0x00, 0x20, 0x00, 0x00, 0x00, 0x01, 0x00, 0x00, 0x00,
  0x10, 0x00, 0x00, 0x00, 0x0d, 0x00, 0x00, 0x00, 0x73, 0x74, 0x64, 0x2e,
  0x63, 0x6f, 0x6e, 0x73, 0x74, 0x61, 0x6e, 0x74, 0x31, 0x00, 0x00, 0x00,
  0x4c, 0xd6, 0xff, 0xff, 0x42, 0xd7, 0xff, 0xff, 0x04, 0x00, 0x00, 0x00,
  0x20, 0x00, 0x00, 0x00, 0x94, 0x09, 0xad, 0xbf, 0x7f, 0xd4, 0xa1, 0xbf,
  0xef, 0x20, 0xf2, 0xbf, 0x15, 0xdc, 0x41, 0xbf, 0x9d, 0xbf, 0x92, 0xbf,
  0xa8, 0xfd, 0x85, 0xbe, 0x2c, 0x48, 0x8d, 0xbf, 0x74, 0x93, 0xc9, 0xbf,
  0xca, 0xd6, 0xff, 0xff, 0x10, 0x00, 0x00, 0x00, 0x09, 0x00, 0x00, 0x00,
  0x10, 0x00, 0x00, 0x00, 0x20, 0x00, 0x00, 0x00, 0x01, 0x00, 0x00, 0x00,
  0x08, 0x00, 0x00, 0x00, 0x0c, 0x00, 0x00, 0x00, 0x73, 0x74, 0x64, 0x2e,
  0x63, 0x6f, 0x6e, 0x73, 0x74, 0x61, 0x6e, 0x74, 0x00, 0x00, 0x00, 0x00,
  0xac, 0xd6, 0xff, 0xff, 0xa2, 0xd7, 0xff, 0xff, 0x04, 0x00, 0x00, 0x00,
  0x00, 0x08, 0x00, 0x00, 0x54, 0xf6, 0x1d, 0x3e, 0x68, 0x71, 0xab, 0xbd,
  0x68, 0x00, 0xae, 0xbe, 0x00, 0x19, 0x18, 0x3c, 0xe3, 0x8f, 0x77, 0xbd,
  0xcf, 0x79, 0x3e, 0xbe, 0xb7, 0x38, 0x83, 0x3d, 0x61, 0x44, 0xe2, 0xbd,
  0x2f, 0x79, 0x6d, 0xbe, 0xe3, 0xb8, 0xf6, 0x3c, 0x98, 0xb8, 0x9b, 0xbd,
  0xeb, 0x7b, 0x4d, 0xbe, 0x9d, 0x1c, 0x07, 0xbd, 0xba, 0xd9, 0x7e, 0xbe,
  0xca, 0x67, 0x68, 0xbd, 0x43, 0xe7, 0xb8, 0xbd, 0x9d, 0xda, 0x17, 0xbf,
  0x9e, 0x63, 0x70, 0x3d, 0x6f, 0xb2, 0x93, 0xbd, 0x82, 0x8b, 0x95, 0xbe,
  0x81, 0x6f, 0xe9, 0x3d, 0x0a, 0x6c, 0x88, 0xbe, 0x93, 0xda, 0xd6, 0x3c,
  0x4b, 0x6b, 0x44, 0x3e, 0xb8, 0xc6, 0x5f, 0x3e, 0xd7, 0x52, 0xe9, 0x3d,
  0x4e, 0x82, 0x73, 0x3d, 0xb8, 0x11, 0x43, 0xbf, 0x6c, 0x50, 0x4b, 0xbc,
  0xce, 0x12, 0x8c, 0xbe, 0x09, 0x8d, 0xb1, 0x3d, 0x29, 0x07, 0x88, 0x3e,
  0xa9, 0x16, 0x9f, 0x3c, 0x15, 0x8f, 0x78, 0x3e, 0x59, 0x73, 0x1c, 0xbe,
  0xd1, 0x27, 0x0d, 0x3e, 0xd9, 0x5d, 0x85, 0x3e, 0x8a, 0x00, 0x7e, 0x3c,
  0x6a, 0x68, 0x7f, 0x3c, 0xe2, 0xd9, 0x98, 0xbd, 0xf3, 0x43, 0x42, 0xbe,
  0x08, 0xa4, 0xf0, 0xbd, 0x3e, 0x79, 0x89, 0xbe, 0xe9, 0x71, 0xf4, 0xbe,
  0x60, 0xba, 0x6c, 0xbc, 0x0c, 0xf7, 0xc5, 0x3d, 0xf4, 0x4f, 0x2b, 0xbe,
  0x28, 0x6d, 0x08, 0xbe, 0xcc, 0xd3, 0x14, 0xbd, 0xbe, 0x30, 0xce, 0xbd,
  0x6a, 0x9f, 0x45, 0xbd, 0x85, 0xcf, 0x0b, 0xbd, 0xf9, 0x1d, 0x36, 0x3d,
  0x6d, 0xf6, 0x15, 0xbe, 0xa9, 0xf1, 0x18, 0xbe, 0x6c, 0x34, 0x85, 0xbe,
  0x2e, 0xc6, 0x2f, 0x3d, 0xf6, 0xa2, 0x32, 0xbe, 0x04, 0x41, 0xe3, 0xbc,
  0x4c, 0x40, 0x16, 0xbe, 0xec, 0x7d, 0xd1, 0x3c, 0xdb, 0xc6, 0x7f, 0xbd,
  0xa7, 0xc8, 0x49, 0x3c, 0x90, 0xe3, 0xd1, 0xbd, 0x00, 0x9b, 0x09, 0x3f,
  0xcd, 0x5f, 0x0b, 0xbe, 0x84, 0x51, 0x2d, 0xbe, 0x24, 0x69, 0x00, 0x3d,
  0xdb, 0x21, 0x3b, 0xbc, 0xd9, 0x3a, 0x3e, 0x3d, 0x8b, 0x72, 0x20, 0xbd,
  0x34, 0x4b, 0x22, 0xbe, 0xc3, 0xe1, 0x5c, 0xbd, 0x8b, 0x3b, 0x06, 0x3e,
  0xf5, 0x0e, 0xa5, 0x3e, 0xc4, 0x0f, 0x12, 0x3f, 0x5e, 0x98, 0xfc, 0x39,
  0x34, 0xb5, 0xf6, 0x3a, 0x35, 0xf4, 0x1d, 0xbd, 0x74, 0x58, 0x12, 0xbe,
  0x49, 0x24, 0xf9, 0x39, 0xdd, 0x2c, 0xcb, 0xbc, 0xc0, 0xe7, 0x84, 0xbe,
  0x8e, 0x96, 0x80, 0xbe, 0xe7, 0x6c, 0xc7, 0xbe, 0xb1, 0x3e, 0x83, 0xbe,
  0xde, 0x80, 0xf8, 0xbe, 0xf0, 0xdd, 0xca, 0xbe, 0xdc, 0xea, 0x4b, 0xbe,
  0x33, 0x93, 0xb3, 0xbd, 0x97, 0xa7, 0x1e, 0x3e, 0xc1, 0x95, 0x33, 0xbe,
  0x06, 0xcb, 0x9e, 0xbe, 0x29, 0x9e, 0x62, 0xbe, 0x3f, 0xa7, 0x92, 0xbe,
  0x50, 0x81, 0x14, 0xbd, 0x46, 0xc2, 0x19, 0xbd, 0xae, 0x55, 0x4c, 0xbd,
  0xdf, 0xca, 0x5a, 0xbd, 0xa2, 0x79, 0x8b, 0xbd, 0x66, 0xc5, 0x66, 0x3d,
  0xcc, 0x3b, 0x8d, 0x3d, 0x21, 0xd9, 0x44, 0xbd, 0xd6, 0x60, 0xe4, 0x39,
  0xb5, 0xd8, 0x36, 0xbe, 0x2a, 0x47, 0xd9, 0xbe, 0x4a, 0x9b, 0xaf, 0xbd,
  0xde, 0x48, 0x96, 0x3e, 0x46, 0x21, 0x1f, 0xbc, 0x4e, 0xcf, 0x73, 0xbe,
  0xe1, 0x42, 0xca, 0xbd, 0x76, 0xe1, 0x48, 0xbe, 0xce, 0xb1, 0xf1, 0x3c,
  0x35, 0x5c, 0xab, 0xbe, 0xc2, 0xd7, 0x7f, 0xbe, 0x00, 0x8f, 0x0f, 0xbe,
  0xe4, 0x06, 0xed, 0xbd, 0x0e, 0xf4, 0x8c, 0xbe, 0x6e, 0x56, 0xe5, 0xbd,
  0x64, 0xbd, 0x5c, 0xbe, 0x7b, 0x5e, 0x14, 0xbe, 0x27, 0x91, 0x57, 0xbe,
  0x78, 0x8b, 0x49, 0xbe, 0x06, 0x29, 0x32, 0xbd, 0xb2, 0x52, 0x9d, 0x3c,
  0x9a, 0x92, 0xe5, 0x3d, 0x4b, 0x1c, 0x0d, 0xbe, 0x83, 0x30, 0x30, 0xbd,
  0xe4, 0xfe, 0x46, 0xbf, 0x51, 0xab, 0x14, 0x3f, 0x9b, 0x4b, 0xd0, 0x3e,
  0x37, 0x30, 0x97, 0x3d, 0xac, 0x04, 0x69, 0x3d, 0x02, 0xc0, 0x63, 0xbc,
  0xe3, 0x71, 0x9f, 0x3b, 0x04, 0xa5, 0x34, 0xbd, 0x9d, 0xe6, 0x15, 0xbf,
  0xbd, 0x53, 0x0b, 0xbd, 0x76, 0x9f, 0x07, 0xbf, 0xfd, 0x77, 0x68, 0x3e,
  0x5c, 0xa3, 0x0d, 0xbb, 0xd6, 0xdd, 0x1c, 0xbd, 0xde, 0x3e, 0xca, 0xbc,
  0xa7, 0x69, 0xe2, 0xbd, 0x93, 0xf7, 0x07, 0xbf, 0xad, 0xe4, 0x08, 0x3b,
  0x62, 0xd7, 0x7e, 0xbe, 0x26, 0x47, 0x1e, 0x3e, 0x69, 0xfb, 0x10, 0x3c,
  0xb2, 0x45, 0x8d, 0xbd, 0xfb, 0xe5, 0x39, 0xbd, 0xb5, 0x27, 0x90, 0x3c,
  0xa2, 0x83, 0x04, 0xbf, 0x8b, 0x23, 0x87, 0xbd, 0x67, 0xf8, 0x13, 0xbe,
  0xcb, 0x3f, 0x4b, 0x3c, 0xa9, 0xc5, 0x70, 0xbd, 0xec, 0x5b, 0x5f, 0xbd,
  0x4e, 0x17, 0xc6, 0x3d, 0x17, 0x67, 0x7f, 0xbd, 0x19, 0x76, 0x5f, 0xbe,
  0x8b, 0xd0, 0x77, 0xbe, 0xf9, 0x0d, 0x0d, 0x3e, 0x79, 0x82, 0x40, 0x3e,
  0xc7, 0x17, 0xcd, 0x3d, 0x23, 0xaf, 0x05, 0x3e, 0x99, 0xb5, 0x95, 0x3d,
  0xaf, 0x1f, 0x09, 0xbe, 0xdb, 0x20, 0xe7, 0xbe, 0xf1, 0x38, 0x12, 0xbf,
  0xdd, 0xb9, 0x3b, 0xbf, 0x0c, 0x85, 0x1e, 0xbd, 0x50, 0x52, 0x66, 0xbc,
  0x1a, 0x17, 0xd8, 0x3e, 0xd0, 0xb2, 0x32, 0xbe, 0x4d, 0xdf, 0x44, 0x3e,
  0x55, 0xdd, 0xb5, 0xbe, 0xc7, 0x3b, 0x93, 0xbe, 0xdb, 0x53, 0x8e, 0xbe,
  0x37, 0x44, 0xc1, 0x3e, 0x11, 0x7b, 0x8b, 0xbd, 0x0c, 0x0c, 0xc4, 0x3e,
  0x3b, 0x32, 0xea, 0xbd, 0xd0, 0x79, 0x18, 0xbd, 0x94, 0x7c, 0xa0, 0xbe,
  0x96, 0x54, 0xb7, 0xbe, 0xb9, 0xf5, 0x53, 0xbe, 0xc8, 0xc1, 0xd0, 0x3e,
  0xb0, 0xa1, 0x27, 0xbd, 0xf3, 0xdb, 0x9b, 0xbb, 0x8f, 0x5c, 0xd5, 0xbd,
  0x91, 0xbf, 0x2f, 0x3d, 0x1d, 0x50, 0x70, 0x3e, 0x5d, 0xcd, 0x86, 0x3e,
  0x91, 0xe3, 0x7e, 0x3e, 0xde, 0xf4, 0xe5, 0x3e, 0xaf, 0xf5, 0xaa, 0xbd,
  0xde, 0xfb, 0x6e, 0xbd, 0xe5, 0xd5, 0x38, 0xbb, 0x2c, 0x9b, 0x1a, 0xbe,
  0x20, 0x08, 0x79, 0x3e, 0xdb, 0xcf, 0xec, 0xbc, 0x8e, 0x4e, 0xdc, 0x3d,
  0xee, 0x29, 0x72, 0x3e, 0x7f, 0x0c, 0x0f, 0xbe, 0xc4, 0xdc, 0x94, 0xbd,
  0x6c, 0x0d, 0x2a, 0xbe, 0x2a, 0xd6, 0xf9, 0xbd, 0x2a, 0x5c, 0x00, 0x3e,
  0x89, 0x8e, 0xe6, 0xbd, 0x67, 0x09, 0x62, 0xbd, 0x31, 0x8f, 0x15, 0x3d,
  0x9c, 0x38, 0x24, 0xbe, 0x5e, 0xfb, 0xb6, 0xbd, 0x8d, 0xc5, 0x69, 0xbe,
  0xd3, 0xd3, 0xcb, 0xbe, 0xed, 0x42, 0x9a, 0x3d, 0xe1, 0xc6, 0x21, 0x3e,
  0xb8, 0x6b, 0xd0, 0x3d, 0x7e, 0xc7, 0x6b, 0x3e, 0x63, 0x23, 0xa4, 0xbb,
  0x07, 0x79, 0x98, 0xbd, 0x8d, 0x23, 0x89, 0x3c, 0x94, 0x60, 0x8b, 0xbe,
  0x73, 0x0a, 0xb2, 0x3d, 0x12, 0x5e, 0xb6, 0xbd, 0x04, 0xb6, 0xcd, 0x3d,
  0xc2, 0xf3, 0x9b, 0x3c, 0x90, 0x41, 0xa4, 0xbe, 0x18, 0xeb, 0x1c, 0xbd,
  0x4f, 0xf4, 0x8f, 0xbe, 0xa5, 0x70, 0x6a, 0x3e, 0xd0, 0x40, 0xb6, 0x3d,
  0x35, 0x68, 0x0e, 0xbe, 0xba, 0x13, 0x71, 0xbe, 0xf5, 0x41, 0x39, 0x3e,
  0xb7, 0x5f, 0xa7, 0xbe, 0x88, 0xf5, 0xf2, 0x3d, 0x0f, 0x08, 0x8d, 0xbe,
  0xeb, 0xfe, 0x01, 0xbe, 0x6c, 0xb3, 0x93, 0x3d, 0xd4, 0x3f, 0xee, 0xbc,
  0x0c, 0x06, 0xb0, 0x3c, 0x54, 0xcf, 0x11, 0x3e, 0xb9, 0xdb, 0x7a, 0xbd,
  0xe2, 0xff, 0x91, 0xbc, 0xf7, 0x21, 0x15, 0xbe, 0x21, 0x1f, 0xc5, 0xbd,
  0x27, 0x64, 0xf7, 0xbd, 0x20, 0x71, 0xd2, 0xbd, 0x5e, 0x54, 0xd2, 0xbe,
  0xf1, 0x26, 0x0c, 0x3e, 0x15, 0x6f, 0x70, 0xbe, 0xfd, 0xb2, 0xc5, 0xbe,
  0xf2, 0x6c, 0xf5, 0xbd, 0x76, 0x7d, 0x99, 0xbe, 0xa6, 0xc3, 0x7a, 0x3d,
  0x6a, 0x44, 0x05, 0x3d, 0xed, 0xc2, 0xd1, 0x3e, 0x01, 0x9b, 0x27, 0x3d,
  0x9f, 0xb2, 0xf7, 0xbd, 0xb1, 0x40, 0x8e, 0xbe, 0xdd, 0x5a, 0x02, 0x3e,
  0x4b, 0x84, 0x0f, 0xbe, 0xf5, 0xaa, 0xe6, 0x3d, 0xaa, 0xb9, 0x3c, 0x3e,
  0x6a, 0x35, 0x63, 0x3e, 0x84, 0x46, 0x1a, 0xbc, 0xbf, 0x88, 0x26, 0xbe,
  0x50, 0xc5, 0xa5, 0xbe, 0xf5, 0x11, 0x91, 0xbd, 0xd4, 0xf9, 0x49, 0xbe,
  0x42, 0x15, 0xc7, 0x3d, 0x4a, 0xb5, 0x39, 0xbe, 0x9d, 0x1b, 0x01, 0x3d,
  0x43, 0x43, 0x9d, 0x3e, 0xbd, 0x17, 0xcc, 0xbd, 0xf8, 0x2a, 0x67, 0xbe,
  0x5c, 0x59, 0x93, 0xbd, 0x00, 0x33, 0x2b, 0xbe, 0x2a, 0xd7, 0x49, 0xbe,
  0x53, 0x3e, 0x9a, 0x3d, 0xa5, 0x4d, 0xb0, 0x3e, 0x75, 0x67, 0x9a, 0x3e,
  0x0d, 0xb8, 0x0d, 0x3d, 0x6b, 0x53, 0x96, 0xbe, 0x01, 0xfa, 0xab, 0x3a,
  0x6c, 0x2c, 0x0c, 0xbe, 0x46, 0xe8, 0x50, 0x3e, 0x58, 0x7d, 0xe6, 0xbc,
  0x8c, 0x07, 0x37, 0x3e, 0x77, 0x68, 0x00, 0xbe, 0x6e, 0xc5, 0xb0, 0xbd,
  0xb6, 0xce, 0xce, 0xbd, 0xbd, 0x2b, 0x94, 0xbd, 0x6b, 0xe1, 0x25, 0x3f,
  0x79, 0x3e, 0x0d, 0x3d, 0x9c, 0x9b, 0x92, 0x3c, 0x5d, 0xa5, 0x2d, 0xbd,
  0x0f, 0xe5, 0xc4, 0xbd, 0xf9, 0xb6, 0xcf, 0xbd, 0x40, 0x20, 0x20, 0xbe,
  0x53, 0x90, 0x68, 0xbd, 0x0a, 0xf1, 0xfc, 0xbd, 0xb0, 0x13, 0x91, 0x3d,
  0xf9, 0xaa, 0xcd, 0x3c, 0x89, 0x7c, 0x00, 0xbd, 0xb0, 0x15, 0x5c, 0xbd,
  0x23, 0xcc, 0xd9, 0xbd, 0xc9, 0x5d, 0x52, 0xbe, 0xb8, 0xc8, 0x9f, 0xbd,
  0x70, 0x30, 0xbd, 0x3e, 0xdc, 0x26, 0x05, 0x3b, 0xfa, 0x32, 0x33, 0xbd,
  0xb3, 0x3d, 0xc9, 0x3d, 0x4e, 0x3c, 0x54, 0x3e, 0xcf, 0xa0, 0xdb, 0xbd,
  0x8e, 0xdf, 0x43, 0xbe, 0x1e, 0x10, 0xad, 0xbd, 0xcf, 0x2a, 0xcb, 0xbc,
  0x5e, 0x37, 0x03, 0x3c, 0xe5, 0x3c, 0xeb, 0xbd, 0x55, 0xa1, 0x76, 0x3e,
  0xdb, 0x3f, 0x21, 0x3e, 0x7e, 0xee, 0xa6, 0xbe, 0x85, 0x51, 0x74, 0x3d,
  0xe0, 0x3d, 0xae, 0xbe, 0x79, 0x75, 0x6c, 0xbd, 0x32, 0x87, 0xb5, 0xbb,
  0xa1, 0xa3, 0xbf, 0xba, 0x46, 0x01, 0xea, 0x3d, 0x75, 0xe7, 0x48, 0x3e,
  0x4f, 0x0d, 0xe1, 0xbe, 0xf3, 0xcc, 0x99, 0x3d, 0x07, 0x80, 0xf4, 0xbe,
  0x99, 0x15, 0xa3, 0x3b, 0xeb, 0x13, 0x2f, 0x3d, 0xc2, 0xc3, 0x76, 0xbe,
  0x9c, 0x87, 0x0e, 0xbd, 0x13, 0x52, 0x04, 0x3e, 0xce, 0x59, 0x04, 0xbf,
  0xc5, 0x59, 0x34, 0x3e, 0xf0, 0x3f, 0x13, 0xbf, 0xc7, 0x60, 0xd3, 0x3c,
  0xf7, 0x71, 0x16, 0xbe, 0xcf, 0x58, 0x9f, 0xbe, 0x42, 0xc7, 0xfa, 0x3c,
  0xdc, 0xd1, 0x01, 0x3f, 0x6d, 0x24, 0xd7, 0xbe, 0x3d, 0x24, 0x30, 0x3d,
  0xdf, 0xa1, 0x0a, 0xbf, 0x39, 0xac, 0xd3, 0x3e, 0x88, 0xfd, 0xed, 0x3e,
  0xa8, 0x02, 0xf5, 0xbd, 0xd2, 0xbf, 0x61, 0x3e, 0xb8, 0x0d, 0xf2, 0x3d,
  0x99, 0x4a, 0x70, 0xbd, 0xc1, 0xa1, 0xbf, 0x3b, 0x36, 0x3e, 0xc1, 0xbd,
  0x0b, 0x11, 0x11, 0x3d, 0x69, 0xff, 0x6d, 0x3e, 0xc1, 0x72, 0x37, 0x3d,
  0xe5, 0xf7, 0x53, 0x3e, 0xdb, 0xd2, 0xfd, 0x3e, 0x07, 0xdc, 0x0c, 0xbd,
  0x53, 0xdb, 0xa5, 0xbc, 0xaf, 0x8c, 0x8f, 0x3d, 0x08, 0x67, 0x7e, 0x3d,
  0x0a, 0xa5, 0x99, 0xbe, 0xa3, 0xd2, 0x81, 0x3e, 0x78, 0x3d, 0x28, 0x3e,
  0x69, 0xa9, 0xd7, 0xbe, 0x42, 0xbd, 0x7d, 0xbe, 0xab, 0xc6, 0xae, 0xbe,
  0x81, 0xb0, 0x9f, 0xbd, 0x19, 0x7b, 0xdb, 0xbd, 0xbf, 0x9e, 0x77, 0xbe,
  0x92, 0x41, 0xb9, 0xbe, 0x33, 0x27, 0xee, 0xbd, 0x54, 0xf9, 0xe8, 0xbb,
  0x22, 0x1f, 0xa8, 0xbc, 0x8f, 0x03, 0xa3, 0xbe, 0xea, 0xb8, 0x58, 0xbc,
  0xae, 0x29, 0x0a, 0xbd, 0x38, 0x3f, 0xa4, 0x3d, 0xe9, 0xa6, 0xd7, 0xbd,
  0x6d, 0x8c, 0x07, 0x3e, 0x3f, 0xe9, 0x87, 0xbe, 0xec, 0x0a, 0x70, 0xbd,
  0xee, 0xae, 0x7f, 0xbd, 0xe7, 0x3a, 0x69, 0xbd, 0x86, 0x75, 0x32, 0xbd,
  0xf8, 0x84, 0xef, 0xbc, 0xcb, 0x40, 0x81, 0xbd, 0x35, 0xe8, 0x5a, 0xbd,
  0x93, 0x4c, 0xd4, 0xbd, 0xc9, 0x16, 0x58, 0xbd, 0x32, 0x84, 0x9b, 0xbd,
  0xe6, 0x65, 0x3a, 0xbd, 0x15, 0xc1, 0x3b, 0x3f, 0xd6, 0xa7, 0xb4, 0xbc,
  0x7e, 0x34, 0xa6, 0xbb, 0x96, 0x1e, 0x32, 0xbd, 0x0b, 0xca, 0x52, 0xbd,
  0xc3, 0x2d, 0x95, 0xbc, 0xa6, 0x8f, 0x80, 0xbd, 0x00, 0xb9, 0x3c, 0xbc,
  0xa9, 0xb1, 0x0b, 0xbd, 0x3e, 0x00, 0x8a, 0x3d, 0x14, 0x0b, 0x4c, 0xbc,
  0xa0, 0x6f, 0xa5, 0x3c, 0x2a, 0x20, 0x38, 0xbe, 0x3d, 0xff, 0xac, 0xbc,
  0xce, 0x60, 0x63, 0xbd, 0xd8, 0x6d, 0x09, 0xbd, 0xdf, 0x3c, 0xa2, 0xbd,
  0xed, 0xcb, 0x36, 0xbe, 0xf1, 0xf5, 0x37, 0x3e, 0x9a, 0x65, 0x5e, 0x3e,
  0xc4, 0xba, 0x92, 0x3d, 0x08, 0x11, 0x98, 0x3d, 0x92, 0x2c, 0xaf, 0x3e,
  0x2b, 0x51, 0x81, 0xbd, 0xcc, 0x11, 0xbe, 0xbd, 0x90, 0x7f, 0x3a, 0xbe,
  0x3f, 0x76, 0xe2, 0xbe, 0x05, 0x90, 0xc7, 0xbe, 0x98, 0x4a, 0x06, 0xbe,
  0x92, 0x98, 0x9c, 0xbe, 0x1e, 0x93, 0x38, 0x3d, 0xea, 0x3a, 0x17, 0xbf,
  0x80, 0xa6, 0xae, 0x3d, 0xa6, 0xbb, 0xc3, 0xbd, 0x94, 0x08, 0xa4, 0xbe,
  0xc6, 0xc2, 0x60, 0xbe, 0xbd, 0xba, 0x2f, 0x3f, 0x29, 0xc9, 0x17, 0xbf,
  0xed, 0x9f, 0xcc, 0x3d, 0x03, 0x44, 0x24, 0xbf, 0x91, 0xd8, 0x54, 0x3e,
  0xbf, 0xbf, 0xae, 0x3c, 0x37, 0x81, 0x33, 0xbe, 0xd5, 0xd0, 0xb4, 0x3d,
  0x57, 0xb4, 0x85, 0x3e, 0x8a, 0xac, 0xcb, 0xbe, 0xb6, 0x26, 0xfa, 0x3d,
  0x87, 0x16, 0xae, 0xbe, 0xf7, 0x70, 0xd5, 0x3d, 0x01, 0x64, 0xe3, 0x3e,
  0x69, 0x4f, 0x0c, 0xbe, 0xbf, 0x60, 0x28, 0xbd, 0x0a, 0xea, 0x4e, 0xbd,
  0xdb, 0x6b, 0xad, 0xbd, 0x60, 0x71, 0x10, 0xbd, 0xc3, 0xdf, 0xf5, 0xbd,
  0x7a, 0x9f, 0x5d, 0xbe, 0x51, 0x4b, 0x38, 0x3e, 0xda, 0x3d, 0xb2, 0xbd,
  0xaa, 0xcb, 0x68, 0xbe, 0x3c, 0x44, 0x83, 0xbd, 0x1a, 0x58, 0x9b, 0xbd,
  0x1f, 0x8c, 0x80, 0xbd, 0x2e, 0xbf, 0xd6, 0x3c, 0x4c, 0x67, 0x56, 0xbe,
  0x4a, 0xa6, 0xe8, 0x3d, 0x59, 0x08, 0x88, 0x3e, 0xcc, 0x41, 0x53, 0xbd,
  0x75, 0x56, 0xff, 0x3e, 0x34, 0x14, 0x33, 0xbc, 0x0a, 0x30, 0x91, 0x3e,
  0x20, 0x1c, 0x16, 0x3e, 0xda, 0x6a, 0x10, 0xbe, 0x91, 0x0e, 0x08, 0x3e,
  0x3e, 0xd5, 0x84, 0xbe, 0xb9, 0x82, 0x79, 0xbe, 0x3d, 0xda, 0x59, 0xbe,
  0x1e, 0x95, 0xc4, 0xbe, 0x95, 0xad, 0xca, 0xbe, 0x41, 0x18, 0x75, 0xbe,
  0x5f, 0x8b, 0xa6, 0xbe, 0x35, 0x92, 0x8c, 0x38, 0xa9, 0xd2, 0x3b, 0xbe,
  0x53, 0xcb, 0x9d, 0x3d, 0x74, 0xda, 0xbd, 0xbd, 0x64, 0x3d, 0x69, 0x3d,
  0x63, 0x91, 0x4c, 0x3d, 0xa6, 0x46, 0x82, 0xbe, 0x8a, 0x39, 0x25, 0xbd,
  0x8c, 0xad, 0x07, 0xbe, 0x7d, 0x2c, 0x65, 0xbe, 0x43, 0xfb, 0x72, 0xbe,
  0xab, 0x92, 0xc5, 0x3e, 0x4f, 0xbf, 0xa3, 0xbe, 0xb3, 0x85, 0x6a, 0x3e,
  0x4e, 0x03, 0xd4, 0xbe, 0x20, 0x98, 0x0f, 0x3e, 0x0d, 0x22, 0x08, 0xbe,
  0x52, 0x5b, 0x55, 0xbe, 0xd7, 0x95, 0x13, 0xbd, 0x94, 0x0f, 0x1e, 0x3e,
  0x05, 0xd1, 0xc8, 0xbe, 0x11, 0x33, 0xe3, 0xbd, 0xf8, 0x0a, 0x72, 0xbe,
  0x58, 0x2a, 0xac, 0x3d, 0xca, 0x69, 0x45, 0xbe, 0xfa, 0xc6, 0x72, 0x3c,
  0xea, 0x17, 0x64, 0x3e, 0x42, 0xa8, 0x4b, 0x3e, 0x93, 0xf6, 0x38, 0xbe,
  0x4e, 0x48, 0x2c, 0xbe, 0x13, 0x05, 0x33, 0x3e, 0xd9, 0x8b, 0xc2, 0xbd,
  0x0a, 0xdf, 0xff, 0xff, 0x10, 0x00, 0x00, 0x00, 0x08, 0x00, 0x00, 0x00,
  0x1c, 0x00, 0x00, 0x00, 0x38, 0x00, 0x00, 0x00, 0x04, 0x00, 0x00, 0x00,
  0x10, 0x00, 0x00, 0x00, 0x04, 0x00, 0x00, 0x00, 0x01, 0x00, 0x00, 0x00,
  0x08, 0x00, 0x00, 0x00, 0x1a, 0x00, 0x00, 0x00, 0x73, 0x65, 0x71, 0x75,
  0x65, 0x6e, 0x74, 0x69, 0x61, 0x6c, 0x2f, 0x63, 0x6f, 0x6e, 0x76, 0x32,
  0x64, 0x5f, 0x31, 0x2f, 0x43, 0x6f, 0x6e, 0x76, 0x32, 0x44, 0x00, 0x00,
  0x04, 0xdf, 0xff, 0xff, 0xfa, 0xdf, 0xff, 0xff, 0x04, 0x00, 0x00, 0x00,
  0x80, 0x01, 0x00, 0x00, 0x10, 0x86, 0x1d, 0x3e, 0x40, 0x91, 0x30, 0xbd,
  0x70, 0x0e, 0x38, 0xbe, 0x6f, 0x55, 0xd3, 0xbd, 0x42, 0x8e, 0x64, 0x3c,
  0x39, 0x98, 0xc6, 0x3d, 0xb5, 0x38, 0xf9, 0xbe, 0xfd, 0xed, 0xc5, 0xbc,
  0x42, 0x60, 0x5c, 0x3e, 0x45, 0x88, 0x04, 0x3b, 0xb3, 0xf8, 0xa6, 0xbd,
  0xf0, 0xd6, 0x32, 0xbf, 0xd7, 0xeb, 0xb0, 0x3e, 0xc6, 0xbb, 0xf8, 0xbd,
  0x3c, 0xf3, 0x25, 0xbe, 0xc1, 0x6d, 0x5e, 0xbe, 0x0c, 0xab, 0xe0, 0xbb,
  0x24, 0xb7, 0x3d, 0x3e, 0x55, 0x57, 0xf2, 0xbe, 0x41, 0xa1, 0xaa, 0x3c,
  0xfa, 0xb7, 0x21, 0x3e, 0xf7, 0xfe, 0xaf, 0xbe, 0xf8, 0xac, 0x22, 0x3c,
  0xd1, 0xcb, 0x90, 0xbd, 0x61, 0x6e, 0xcf, 0x3e, 0x48, 0x1a, 0x7d, 0xbd,
  0x07, 0xff, 0x2d, 0xbe, 0x15, 0x72, 0xa6, 0xbd, 0x5d, 0xc6, 0xa2, 0xbc,
  0xe6, 0x80, 0x99, 0x3d, 0x48, 0x84, 0x16, 0xbf, 0xa5, 0xdb, 0x35, 0xbc,
  0x8d, 0x97, 0x54, 0x3e, 0x6b, 0x81, 0x3c, 0x3d, 0x64, 0xb0, 0x98, 0xbc,
  0x0f, 0x0b, 0x6b, 0xbe, 0xfa, 0x40, 0xaa, 0x3d, 0x64, 0xab, 0x73, 0x3d,
  0x8c, 0x8b, 0xbb, 0x3b, 0xbc, 0xd9, 0x84, 0xbd, 0x26, 0xfa, 0x53, 0xbd,
  0xb8, 0x32, 0xc8, 0xbd, 0x71, 0xf9, 0xd3, 0xbd, 0xb8, 0x8d, 0x4c, 0xbd,
  0xed, 0x6b, 0x2a, 0xbd, 0x34, 0x15, 0x1b, 0xbe, 0x07, 0x94, 0xc4, 0xbe,
  0xe3, 0xf4, 0x36, 0xbe, 0x43, 0x06, 0xb9, 0x3b, 0xf0, 0x5b, 0x4e, 0xbc,
  0xc3, 0xa1, 0xed, 0x3d, 0x98, 0x3d, 0xd3, 0xbd, 0x64, 0x9e, 0x04, 0x3d,
  0x9e, 0x45, 0x3b, 0xbe, 0x1b, 0x97, 0x11, 0xbe, 0x34, 0x91, 0x00, 0xbe,
  0x4a, 0xff, 0x11, 0x3e, 0x29, 0x32, 0xc1, 0xbb, 0x71, 0x00, 0x76, 0x3d,
  0xf2, 0x9b, 0x81, 0x3e, 0x1c, 0xeb, 0xc3, 0xbd, 0xa9, 0x38, 0xc9, 0xbd,
  0xaa, 0x54, 0xc6, 0xbe, 0xab, 0x8b, 0x13, 0xbe, 0xd8, 0xee, 0xf3, 0x3d,
  0x88, 0xf8, 0xa5, 0xbd, 0xcd, 0x02, 0x2b, 0xbe, 0xac, 0x8d, 0x41, 0x3e,
  0x8a, 0x67, 0x04, 0x3d, 0xf1, 0x64, 0x08, 0xbe, 0x5e, 0x87, 0x49, 0xbd,
  0x3e, 0xac, 0xa8, 0x3b, 0xa8, 0x9e, 0xea, 0x3d, 0x91, 0xf4, 0x82, 0xbd,
  0x95, 0xea, 0x89, 0x3d, 0xbb, 0xa7, 0xef, 0x3d, 0xe8, 0xaa, 0x4c, 0xbd,
  0x09, 0x4c, 0x1c, 0xbe, 0x96, 0x6a, 0x56, 0xbe, 0xea, 0x5f, 0x8e, 0x3d,
  0x04, 0xf8, 0x2e, 0x3e, 0x4e, 0x30, 0xa0, 0xbe, 0x22, 0x95, 0xc3, 0x3b,
  0x61, 0x43, 0x5c, 0x3e, 0x0b, 0xc7, 0x0e, 0xbf, 0xa1, 0x85, 0x4b, 0x3d,
  0x6e, 0x0b, 0x00, 0xbf, 0xde, 0x07, 0x87, 0x3e, 0x63, 0xb2, 0x82, 0x3d,
  0x37, 0x62, 0x41, 0xbc, 0xe6, 0x1a, 0x8b, 0x3e, 0xd5, 0x53, 0x20, 0xb9,
  0xef, 0xa1, 0x53, 0xbe, 0x83, 0x3a, 0x60, 0x3f, 0xc1, 0x85, 0x61, 0x3d,
  0xa7, 0xcb, 0x9d, 0xbe, 0xe2, 0xe0, 0xff, 0xff, 0x10, 0x00, 0x00, 0x00,
  0x07, 0x00, 0x00, 0x00, 0x1c, 0x00, 0x00, 0x00, 0x38, 0x00, 0x00, 0x00,
  0x04, 0x00, 0x00, 0x00, 0x08, 0x00, 0x00, 0x00, 0x04, 0x00, 0x00, 0x00,
  0x03, 0x00, 0x00, 0x00, 0x01, 0x00, 0x00, 0x00, 0x18, 0x00, 0x00, 0x00,
  0x73, 0x65, 0x71, 0x75, 0x65, 0x6e, 0x74, 0x69, 0x61, 0x6c, 0x2f, 0x63,
  0x6f, 0x6e, 0x76, 0x32, 0x64, 0x2f, 0x43, 0x6f, 0x6e, 0x76, 0x32, 0x44,
  0x00, 0x00, 0x00, 0x00, 0xdc, 0xe0, 0xff, 0xff, 0xd2, 0xe1, 0xff, 0xff,
  0x04, 0x00, 0x00, 0x00, 0xc0, 0x00, 0x00, 0x00, 0x79, 0x99, 0xf1, 0x3d,
  0x16, 0x3f, 0xde, 0x3d, 0x21, 0x7e, 0x30, 0x3e, 0xf3, 0xd1, 0xb4, 0x3e,
  0x25, 0x86, 0xc9, 0xbc, 0x49, 0x1d, 0xd2, 0xbe, 0xbc, 0x10, 0x72, 0xbd,
  0xb7, 0xdc, 0x31, 0x3e, 0xf9, 0xc0, 0xe6, 0xbe, 0x9e, 0x13, 0x92, 0x3d,
  0x43, 0x3a, 0xc1, 0x3d, 0xfc, 0xf8, 0xa1, 0x3d, 0x1e, 0xab, 0x9c, 0xbe,
  0x16, 0x6c, 0xd3, 0x3d, 0xd2, 0x79, 0x53, 0x3e, 0x84, 0xa9, 0xe1, 0x3d,
  0xde, 0x06, 0xd6, 0x3d, 0xca, 0x03, 0x70, 0x3e, 0x28, 0x85, 0x2e, 0x3e,
  0x6e, 0xf1, 0x3e, 0x3e, 0x81, 0xa5, 0x25, 0xbd, 0x89, 0xec, 0xd5, 0xbe,
  0x92, 0xa8, 0x9b, 0x3c, 0xf1, 0x35, 0xb2, 0x3e, 0xd0, 0xad, 0xde, 0xbe,
  0x32, 0x2a, 0x5a, 0xbd, 0xf3, 0x1d, 0x94, 0x3b, 0x52, 0xf7, 0x9e, 0xbd,
  0xef, 0xa3, 0x6e, 0xbe, 0xde, 0x96, 0xe2, 0x3c, 0xc7, 0x35, 0x1b, 0x3e,
  0xbc, 0xa7, 0x42, 0x3e, 0x62, 0xfb, 0x18, 0x3e, 0x80, 0xf9, 0x20, 0x3e,
  0x0a, 0x3e, 0xd1, 0x3d, 0x2a, 0xa8, 0x8e, 0x3e, 0xb0, 0x86, 0x17, 0x3c,
  0x4a, 0x06, 0xbf, 0xbe, 0xf9, 0x08, 0x26, 0xbd, 0x1b, 0xe0, 0xab, 0x3e,
  0x6a, 0x95, 0xfa, 0xbe, 0xf0, 0xbc, 0xab, 0xbc, 0x50, 0x02, 0x9a, 0x3c,
  0xe5, 0x20, 0xaa, 0xbd, 0x30, 0x88, 0x88, 0xbe, 0x02, 0x49, 0xd4, 0x3c,
  0x87, 0x41, 0x72, 0x3e, 0x49, 0x4d, 0x21, 0x3e, 0xfa, 0xe1, 0xff, 0xff,
  0x10, 0x00, 0x00, 0x00, 0x06, 0x00, 0x00, 0x00, 0x14, 0x00, 0x00, 0x00,
  0x30, 0x00, 0x00, 0x00, 0x02, 0x00, 0x00, 0x00, 0x03, 0x00, 0x00, 0x00,
  0x10, 0x00, 0x00, 0x00, 0x19, 0x00, 0x00, 0x00, 0x73, 0x65, 0x71, 0x75,
  0x65, 0x6e, 0x74, 0x69, 0x61, 0x6c, 0x2f, 0x64, 0x65, 0x6e, 0x73, 0x65,
  0x5f, 0x31, 0x2f, 0x4d, 0x61, 0x74, 0x4d, 0x75, 0x6c, 0x00, 0x00, 0x00,
  0xec, 0xe1, 0xff, 0xff, 0xe2, 0xe2, 0xff, 0xff, 0x04, 0x00, 0x00, 0x00,
  0x00, 0x1c, 0x00, 0x00, 0x2d, 0x0a, 0x0c, 0x3d, 0x68, 0xce, 0x44, 0x3e,
  0xd7, 0xba, 0x50, 0xbe, 0x41, 0xe2, 0x4a, 0xbf, 0x32, 0xec, 0x65, 0x3e,
  0x19, 0xd9, 0xb1, 0xbd, 0x00, 0x1b, 0x4f, 0x3c, 0xbb, 0x3e, 0x04, 0xbf,
  0xde, 0x50, 0xc0, 0x3c, 0x23, 0x16, 0x0a, 0xbe, 0x66, 0x66, 0x2f, 0x3e,
  0x83, 0x6a, 0x81, 0x3e, 0xb3, 0x43, 0x5d, 0xbe, 0x18, 0x18, 0xd1, 0x3e,
  0xf7, 0x94, 0xcd, 0xbd, 0x88, 0x1d, 0x24, 0xbd, 0x90, 0xda, 0x29, 0xbe,
  0x68, 0xe8, 0xbf, 0xbd, 0x6a, 0xe3, 0x27, 0x3e, 0x65, 0x43, 0x84, 0xbe,
  0xaf, 0x77, 0xb3, 0xbd, 0x6f, 0x17, 0x02, 0x3c, 0x18, 0xf8, 0x42, 0xbd,
  0xfa, 0xd7, 0xee, 0xbe, 0xad, 0xf4, 0xc2, 0x3c, 0x11, 0xed, 0x45, 0xbe,
  0xa7, 0x67, 0xaa, 0x3e, 0xe5, 0x2e, 0xfd, 0xbd, 0xff, 0x68, 0x2e, 0xbe,
  0xe5, 0x1b, 0x3d, 0x3e, 0xcc, 0x6e, 0x8d, 0x3e, 0x1e, 0x30, 0xd4, 0x3c,
  0x20, 0xae, 0x63, 0xbd, 0x20, 0x1d, 0x05, 0xbc, 0x0a, 0x41, 0x80, 0xbe,
  0xce, 0x8e, 0x69, 0xbe, 0x94, 0x1b, 0x21, 0xbd, 0x33, 0xf1, 0x82, 0x3d,
  0xa0, 0x11, 0x80, 0xbd, 0xf2, 0x84, 0x94, 0xbe, 0x01, 0x88, 0xb5, 0x3c,
  0x1d, 0x04, 0xce, 0x3b, 0x49, 0x09, 0x96, 0x3e, 0x39, 0x85, 0x35, 0xbe,
  0x07, 0x04, 0x82, 0xbd, 0x02, 0x41, 0x72, 0x3d, 0x92, 0xb1, 0x1a, 0xbe,
  0xe0, 0x06, 0x94, 0xbd, 0x45, 0x42, 0x9d, 0xbd, 0x58, 0x20, 0x1d, 0x3d,
  0xef, 0x11, 0xba, 0xbd, 0xe9, 0x44, 0x02, 0xbf, 0xc2, 0xdc, 0x73, 0xbd,
  0x19, 0x6d, 0x9b, 0xbc, 0x3c, 0xac, 0x75, 0xbe, 0x2e, 0x01, 0x12, 0xbf,
  0x77, 0xc6, 0x4b, 0x3d, 0x48, 0xea, 0x8e, 0x3c, 0x07, 0xf2, 0x5f, 0x3e,
  0x1d, 0x48, 0xa3, 0xbd, 0xc1, 0xa5, 0xdb, 0x3d, 0x9a, 0x7b, 0xd4, 0x3e,
  0x1a, 0x9e, 0xa7, 0x3d, 0xbb, 0x66, 0x19, 0xbb, 0x84, 0xa6, 0x25, 0x3e,
  0xd4, 0xc1, 0x9d, 0x3d, 0x6d, 0xf1, 0x43, 0x3d, 0xe4, 0xbe, 0x40, 0xbc,
  0x44, 0xa8, 0xed, 0xbd, 0x48, 0x1e, 0x2c, 0x3e, 0xec, 0x54, 0x3c, 0x3d,
  0x7d, 0x61, 0x86, 0xbe, 0x71, 0x77, 0x07, 0x3e, 0x7b, 0x15, 0xeb, 0xbc,
  0xc2, 0xff, 0x40, 0x3e, 0x0c, 0x5f, 0x33, 0x3e, 0x03, 0x74, 0x25, 0x3d,
  0x1c, 0x64, 0x86, 0x3e, 0x4a, 0xb4, 0x81, 0xbb, 0x05, 0x62, 0xaa, 0xbe,
  0xcb, 0xb6, 0x76, 0xbe, 0x5b, 0xaa, 0x1f, 0x3e, 0x90, 0x31, 0x3f, 0x3d,
  0xc6, 0xda, 0x41, 0xbe, 0xf3, 0xf1, 0xde, 0x3d, 0x8f, 0xd5, 0x8f, 0x3d,
  0x0c, 0x8c, 0x8a, 0xbd, 0x3f, 0xe6, 0x13, 0xbf, 0x10, 0x57, 0xbd, 0xbd,
  0x44, 0x33, 0x96, 0xbd, 0xcf, 0x39, 0x29, 0x3e, 0xbc, 0x66, 0x98, 0x3c,
  0xe9, 0xe0, 0x5f, 0xbd, 0xa7, 0xf3, 0xac, 0x3e, 0x39, 0xe0, 0xbf, 0x3d,
  0x72, 0x62, 0x9f, 0x3d, 0x5a, 0x6d, 0x58, 0xbe, 0x77, 0xda, 0x10, 0x3e,
  0xe5, 0x53, 0x86, 0xbd, 0x62, 0x5a, 0x0d, 0x3f, 0x84, 0x25, 0xa0, 0x3c,
  0x24, 0xfa, 0x95, 0x3e, 0xab, 0xe7, 0x6e, 0xbe, 0xa5, 0x2c, 0xed, 0x3e,
  0x6b, 0xb1, 0x64, 0xbe, 0x67, 0x84, 0x1d, 0xbe, 0x36, 0xbd, 0x39, 0x3e,
  0x0e, 0xbc, 0x88, 0xbd, 0x83, 0xe2, 0x1b, 0xbe, 0x73, 0xd7, 0xb1, 0x3e,
  0x03, 0xdc, 0xf5, 0xbd, 0x8d, 0x51, 0x05, 0x3f, 0x65, 0x54, 0x18, 0xbe,
  0x84, 0x77, 0x1f, 0xbe, 0x48, 0xa6, 0x28, 0xbe, 0xc9, 0xfe, 0x2f, 0xbc,
  0xb2, 0x50, 0x11, 0x3d, 0xcc, 0xa3, 0x0a, 0xbe, 0xb9, 0xd4, 0x9d, 0x3d,
  0xdc, 0x0a, 0xd0, 0x3c, 0x95, 0xdf, 0x1d, 0x39, 0xed, 0xa0, 0x39, 0xbe,
  0x95, 0x06, 0x2e, 0xbb, 0xd5, 0x32, 0x09, 0x3e, 0xde, 0x30, 0x24, 0xbe,
  0x0d, 0xf4, 0x28, 0xbd, 0x56, 0xd6, 0x66, 0xbb, 0x6d, 0x7e, 0x7c, 0xbe,
  0x9e, 0x35, 0x05, 0xbe, 0xec, 0x48, 0x2e, 0x3c, 0xac, 0xb3, 0x94, 0x3d,
  0x29, 0xb1, 0x6a, 0xbe, 0x8a, 0x27, 0x5d, 0xbe, 0x7c, 0x3f, 0x23, 0xbe,
  0x84, 0xb9, 0x92, 0x3e, 0xe2, 0x7f, 0x57, 0x3d, 0x83, 0x44, 0x0e, 0xbe,
  0x70, 0x4a, 0xfa, 0xbc, 0xe1, 0x20, 0x50, 0xbe, 0x3c, 0x40, 0x70, 0xbd,
  0x1d, 0x60, 0xb7, 0xbd, 0x55, 0xc5, 0x82, 0xbd, 0xf4, 0xa1, 0xca, 0xbd,
  0x46, 0xa9, 0xe2, 0x3d, 0x52, 0xa9, 0xc8, 0xbd, 0xa7, 0xb6, 0x0d, 0xbe,
  0x6c, 0x8a, 0x9a, 0x3c, 0xf7, 0x6b, 0x3d, 0x3d, 0xb5, 0xb6, 0x3b, 0xbe,
  0x03, 0x7a, 0x15, 0x3d, 0xd9, 0xee, 0x81, 0x3e, 0x06, 0xde, 0x3b, 0x3d,
  0x1c, 0x75, 0xa4, 0x3d, 0xee, 0x17, 0xae, 0xbc, 0x49, 0xde, 0x1b, 0xbd,
  0xcc, 0xf2, 0x32, 0xbe, 0xc5, 0xdf, 0x0b, 0x3e, 0x49, 0x53, 0x80, 0xbd,
  0xbb, 0x1b, 0x29, 0xbe, 0x5e, 0x8d, 0x42, 0xbe, 0x54, 0xd2, 0x71, 0x3e,
  0x95, 0x66, 0x1c, 0x3e, 0x38, 0xba, 0x99, 0x3c, 0x83, 0x0e, 0x9a, 0xbe,
  0x85, 0x82, 0x84, 0xbd, 0x5b, 0xe7, 0x38, 0xbc, 0xb5, 0xde, 0x96, 0xbd,
  0x74, 0x55, 0x35, 0x3e, 0x78, 0x16, 0x75, 0xbd, 0xad, 0x54, 0x3e, 0xbe,
  0x86, 0x62, 0xb6, 0x3d, 0x84, 0x65, 0x21, 0xbe, 0x98, 0xe7, 0x11, 0x3e,
  0x32, 0x16, 0xbf, 0xbc, 0xf2, 0xa6, 0x7a, 0x3d, 0x22, 0x86, 0x4a, 0xbe,
  0x34, 0xcd, 0x5a, 0x3d, 0x97, 0xcf, 0x05, 0xbe, 0x80, 0x7c, 0x17, 0xbe,
  0xd3, 0xde, 0x9f, 0x3d, 0x87, 0xeb, 0x3b, 0xbd, 0xdb, 0xc3, 0x13, 0xbe,
  0x8f, 0xf6, 0xfe, 0xbd, 0x47, 0x25, 0x2b, 0xbe, 0xf5, 0x3b, 0xdc, 0x3d,
  0x4a, 0xed, 0x48, 0xbd, 0xd6, 0x69, 0x3f, 0xbe, 0xc8, 0x58, 0x45, 0xbd,
  0x50, 0x47, 0xa6, 0xbd, 0x5c, 0x89, 0xa7, 0x3d, 0x4a, 0x0e, 0xc3, 0x3d,
  0x5d, 0x9b, 0x79, 0xbe, 0x55, 0x19, 0x6f, 0xbe, 0xcd, 0x8d, 0xaa, 0x3c,
  0x0c, 0xc3, 0x78, 0x3d, 0x45, 0x61, 0x91, 0xbe, 0x98, 0x46, 0x96, 0x3d,
  0x8f, 0x40, 0x73, 0x3c, 0x76, 0x76, 0x29, 0x3d, 0xb5, 0xff, 0x9e, 0x3d,
  0xed, 0x24, 0x5a, 0x3e, 0xa1, 0xdb, 0x84, 0x3d, 0xf4, 0x13, 0xfb, 0xbd,
  0xfd, 0x94, 0x9c, 0xbd, 0x3e, 0x58, 0xea, 0xbd, 0x19, 0xd1, 0x34, 0xbe,
  0x04, 0x5e, 0x3b, 0x3d, 0x4e, 0x4c, 0x48, 0xbe, 0x73, 0x21, 0x73, 0x3e,
  0xbc, 0x12, 0x87, 0xbe, 0x42, 0xa4, 0xb8, 0x3d, 0x8a, 0xc3, 0xe8, 0x3d,
  0xd6, 0x5c, 0xee, 0xbd, 0x91, 0x43, 0xb5, 0xbe, 0x7c, 0x92, 0x8b, 0x38,
  0x6c, 0xbf, 0xb4, 0xbc, 0x4b, 0xae, 0x9f, 0x3d, 0x21, 0xea, 0xab, 0xbd,
  0xfa, 0x8c, 0x7b, 0xbe, 0x69, 0xfe, 0xbf, 0xbe, 0x77, 0x12, 0x0e, 0xbe,
  0x62, 0x83, 0x64, 0x3d, 0x0b, 0xbb, 0x95, 0x3d, 0x11, 0x94, 0x14, 0x3e,
  0x08, 0x64, 0x34, 0xbd, 0x40, 0x8c, 0x5e, 0xbd, 0x0b, 0xf8, 0x0c, 0x3e,
  0x8b, 0x9e, 0x21, 0x40, 0x44, 0xf0, 0xb6, 0xbe, 0x0d, 0xc0, 0x4b, 0xbd,
  0x6d, 0x5a, 0x19, 0x3e, 0xeb, 0x5d, 0x01, 0x40, 0xe5, 0x68, 0x4f, 0xbe,
  0xe8, 0x84, 0x0e, 0xbd, 0xae, 0x79, 0x24, 0xbe, 0xca, 0xac, 0xae, 0x3d,
  0x54, 0x21, 0xe7, 0x3d, 0xd8, 0x57, 0xa2, 0xbc, 0xa9, 0x79, 0xf9, 0x3d,
  0xbb, 0x24, 0x75, 0x3f, 0xda, 0x7f, 0x3e, 0xbd, 0x23, 0x2f, 0xb6, 0x3d,
  0xac, 0x7e, 0xa7, 0x3d, 0xae, 0xc8, 0x05, 0x40, 0xf1, 0x99, 0x94, 0xbe,
  0xea, 0x7c, 0x92, 0xbd, 0xe8, 0x02, 0x7e, 0xbd, 0x9f, 0xdb, 0xab, 0x3f,
  0x7e, 0xb8, 0x01, 0x3e, 0xc5, 0xcb, 0xd9, 0x3c, 0xbb, 0x8e, 0x81, 0xbe,
  0x40, 0x9c, 0x0f, 0x3d, 0x75, 0xea, 0xff, 0xbc, 0x81, 0x0f, 0x68, 0xbe,
  0x97, 0x5c, 0xda, 0xbd, 0x75, 0x6e, 0x1e, 0x3f, 0xef, 0x34, 0xa3, 0xbb,
  0x1e, 0x2c, 0xd3, 0x3d, 0x4d, 0x9d, 0x4d, 0x3e, 0x10, 0x48, 0x0f, 0x40,
  0x3c, 0xb7, 0xbe, 0xbe, 0x90, 0x8c, 0x8f, 0x3d, 0xdf, 0x1d, 0x83, 0x3d,
  0x9b, 0x5e, 0x9e, 0x3f, 0xdd, 0xf3, 0x38, 0xbc, 0xd2, 0xe4, 0x98, 0xbd,
  0x0a, 0x43, 0x8a, 0x3c, 0x38, 0x2c, 0x57, 0xbe, 0x66, 0xc3, 0x65, 0xbe,
  0xee, 0x13, 0x52, 0xbe, 0xdc, 0x37, 0x2b, 0xbd, 0xf6, 0x40, 0x4b, 0x3f,
  0x29, 0x57, 0x6f, 0x3e, 0x50, 0x0d, 0xcb, 0x3d, 0x74, 0xf6, 0x29, 0xbd,
  0xa2, 0x23, 0xda, 0x3f, 0x89, 0xab, 0x70, 0xbe, 0xca, 0x7b, 0x8c, 0xbc,
  0x94, 0x6e, 0x80, 0x3e, 0x18, 0x32, 0x84, 0x3f, 0x3e, 0x84, 0xae, 0x3c,
  0x6f, 0x5d, 0x94, 0xbc, 0x25, 0xaa, 0x7d, 0xbd, 0x37, 0x70, 0x4b, 0x3e,
  0xb4, 0x34, 0xcb, 0xbd, 0x65, 0x4f, 0x81, 0xbc, 0x39, 0xd3, 0xe0, 0xbc,
  0x57, 0x49, 0x0b, 0x3f, 0x57, 0x1f, 0xb5, 0xbd, 0x6d, 0xab, 0x03, 0x3e,
  0x8b, 0xc6, 0xc4, 0x3d, 0xfe, 0x39, 0xd6, 0x3f, 0xa2, 0xad, 0xc7, 0xbe,
  0x41, 0x7c, 0x19, 0xbd, 0x06, 0xf1, 0xed, 0x3d, 0xf1, 0x13, 0xd2, 0x3f,
  0xfe, 0x02, 0x71, 0x3d, 0xca, 0x7a, 0x16, 0xbe, 0xd4, 0xae, 0x7d, 0xbe,
  0xf1, 0x20, 0x89, 0xbd, 0xf5, 0x8d, 0x1a, 0xbd, 0xc3, 0x15, 0x56, 0x3e,
  0xd7, 0x49, 0x88, 0xbd, 0x31, 0xd6, 0x50, 0x3f, 0xbe, 0xb8, 0x9c, 0x3d,
  0x39, 0x13, 0x98, 0x3d, 0xac, 0xf8, 0xe9, 0x3c, 0x59, 0xae, 0xe9, 0x3f,
  0x0e, 0x2e, 0xd5, 0xbe, 0xf0, 0xeb, 0xd1, 0xbd, 0x5f, 0x73, 0x37, 0x3e,
  0x7c, 0xf7, 0x11, 0x3f, 0xef, 0xd4, 0x4f, 0x3d, 0x53, 0x81, 0x69, 0xbe,
  0x7a, 0x03, 0x55, 0xbe, 0xc4, 0xc2, 0x7b, 0xbd, 0x3c, 0x96, 0x31, 0xbe,
  0x22, 0x7a, 0x75, 0xbe, 0xe1, 0x05, 0x41, 0xbd, 0x07, 0x0b, 0x35, 0xbc,
  0x80, 0x60, 0xed, 0x3d, 0xeb, 0xf2, 0x3a, 0x3d, 0x33, 0x9b, 0x42, 0xbd,
  0x1c, 0x06, 0x7e, 0x3f, 0x16, 0xae, 0x9b, 0xbc, 0xc6, 0xfd, 0xc4, 0xbe,
  0x2a, 0x42, 0xaa, 0x3d, 0x66, 0xf1, 0x34, 0xbc, 0x0b, 0x06, 0xae, 0x3c,
  0x7c, 0xaf, 0x0d, 0x39, 0xc2, 0x7b, 0x3c, 0xbe, 0xb2, 0x18, 0x9a, 0x3d,
  0x1c, 0xe1, 0x0f, 0xbe, 0xb0, 0xef, 0xad, 0xbe, 0x46, 0x15, 0x88, 0x3c,
  0x6b, 0xd4, 0x0c, 0xbe, 0x7d, 0x8f, 0x06, 0x3e, 0xee, 0x5a, 0x42, 0xbe,
  0x27, 0x4a, 0x12, 0x3d, 0xe9, 0x8b, 0x74, 0x3d, 0xc4, 0xff, 0xcc, 0xbc,
  0x67, 0xfc, 0x33, 0xbd, 0xab, 0x10, 0x8e, 0xbd, 0x2c, 0x47, 0x19, 0x3e,
  0x94, 0xbf, 0x54, 0xbe, 0x7f, 0xb2, 0x0e, 0x3e, 0xc2, 0x14, 0x58, 0xbe,
  0x9a, 0xaf, 0x21, 0x3e, 0x7a, 0x3b, 0xb6, 0x3d, 0xec, 0x9e, 0xe0, 0xbe,
  0xce, 0x35, 0x8c, 0xbd, 0x3c, 0x8d, 0x87, 0xbe, 0x87, 0xc4, 0x0c, 0x3e,
  0x80, 0x3a, 0x87, 0x3e, 0x8f, 0xa6, 0xbb, 0xbc, 0xd3, 0x71, 0x84, 0xbd,
  0xf6, 0x84, 0x66, 0x3d, 0x08, 0x76, 0x46, 0xba, 0x82, 0xf9, 0x08, 0x3e,
  0x5e, 0x1f, 0xd4, 0x3d, 0x15, 0x84, 0xa3, 0xbb, 0xa3, 0x81, 0x1e, 0x3e,
  0x92, 0x26, 0xc2, 0xbe, 0x74, 0x2e, 0xeb, 0x3c, 0x2a, 0xb7, 0x83, 0x3d,
  0x1b, 0x33, 0x7e, 0xbe, 0xc6, 0x58, 0x80, 0x3d, 0x35, 0x1b, 0x30, 0xbe,
  0x64, 0x42, 0xf1, 0x3d, 0x56, 0x15, 0x42, 0xbe, 0xe1, 0xf7, 0x02, 0x3e,
  0x6a, 0xee, 0x35, 0x3b, 0x0e, 0x82, 0x1d, 0xbd, 0x42, 0xcd, 0xec, 0xbc,
  0xab, 0xe3, 0xe9, 0x3d, 0x13, 0xbd, 0x64, 0xbe, 0xf2, 0xcf, 0x4c, 0xbe,
  0x60, 0x7b, 0xf9, 0x3d, 0xa2, 0x8d, 0x88, 0xbe, 0x50, 0x62, 0x41, 0x3e,
  0xba, 0x2c, 0x39, 0x3c, 0xb9, 0x4c, 0x5e, 0xbe, 0x34, 0xb7, 0x86, 0xbd,
  0x83, 0xf0, 0xc4, 0xbd, 0xb7, 0x2a, 0x5e, 0x3e, 0xea, 0x48, 0x35, 0x3e,
  0x54, 0x35, 0xee, 0x3d, 0xbd, 0x39, 0xa0, 0x3d, 0x63, 0x6a, 0x0a, 0x3d,
  0xbf, 0xac, 0xd8, 0x3c, 0x6b, 0x10, 0xed, 0x3c, 0xea, 0xf0, 0x36, 0xbe,
  0xc5, 0x64, 0x29, 0xbe, 0x01, 0x0c, 0xdf, 0x3b, 0xa3, 0x1a, 0x95, 0xbe,
  0x39, 0x41, 0x5d, 0x3d, 0xd1, 0x96, 0xf3, 0xbc, 0xde, 0x42, 0x16, 0xbe,
  0x31, 0xb3, 0x7a, 0xbb, 0xcf, 0x19, 0x65, 0xbe, 0xcc, 0x5e, 0xc4, 0x3e,
  0x99, 0x98, 0x18, 0x3e, 0xe4, 0xc9, 0x8f, 0xbd, 0x70, 0xd6, 0x59, 0xbd,
  0x8c, 0x8c, 0x3d, 0xbd, 0xdc, 0x10, 0xaa, 0xbc, 0x03, 0xe8, 0x32, 0xbd,
  0x39, 0xb8, 0x59, 0xbe, 0xe1, 0xc6, 0xda, 0xbd, 0x41, 0xd3, 0x0f, 0x3d,
  0xab, 0x3c, 0xcd, 0xbe, 0xcd, 0xb5, 0x9e, 0x3c, 0x67, 0x1a, 0xbc, 0xba,
  0x9e, 0x46, 0xbc, 0xbe, 0x2d, 0xe3, 0x9c, 0x3d, 0xdc, 0x6e, 0x15, 0xbe,
  0xc7, 0xfc, 0x97, 0x3e, 0xdb, 0x69, 0x18, 0x3e, 0x2d, 0x31, 0x0d, 0xbd,
  0x1a, 0x67, 0x42, 0x3d, 0x31, 0x0f, 0x29, 0xbd, 0xfb, 0x22, 0xc5, 0xbd,
  0xa6, 0x7a, 0x26, 0x3e, 0x8e, 0x63, 0x3c, 0x3d, 0x58, 0xe7, 0xd5, 0xbd,
  0x58, 0x09, 0x06, 0x3e, 0x0f, 0x48, 0xf7, 0xbe, 0x33, 0xd0, 0xc1, 0x3d,
  0xbb, 0xc9, 0x55, 0x3d, 0x11, 0xba, 0x37, 0xbe, 0xf3, 0xe4, 0xc3, 0xbd,
  0x80, 0xb1, 0x18, 0xbf, 0x0d, 0x42, 0x2f, 0x3e, 0x44, 0x35, 0xef, 0xbc,
  0xfc, 0xe2, 0x3a, 0xbe, 0x2d, 0xb7, 0xb3, 0xbe, 0xf6, 0x15, 0x87, 0x3d,
  0xfe, 0x1c, 0xb4, 0xbe, 0xa0, 0x0e, 0x5c, 0xbd, 0xfb, 0xbb, 0x23, 0xbf,
  0x2a, 0x58, 0xf9, 0xbb, 0xcb, 0xa7, 0x19, 0x3e, 0x7d, 0x77, 0xdb, 0xbe,
  0xf8, 0x95, 0x55, 0xbd, 0x6d, 0x94, 0x5a, 0xbc, 0x75, 0x27, 0xbe, 0xbe,
  0x5e, 0xb9, 0x65, 0xbe, 0xcf, 0xee, 0x0c, 0xbf, 0x18, 0xba, 0xcc, 0xbd,
  0xa3, 0xb5, 0x9b, 0x3e, 0xf5, 0x91, 0x4c, 0x3e, 0x11, 0x29, 0x51, 0xbf,
  0x0e, 0x4c, 0x9c, 0x3c, 0xa1, 0x19, 0xe7, 0xbd, 0x42, 0xd6, 0x9e, 0x3e,
  0xae, 0xce, 0x18, 0xbf, 0x36, 0x71, 0x12, 0x3e, 0xf9, 0x4f, 0x5b, 0xbb,
  0xaf, 0xbd, 0xf6, 0x3e, 0xe0, 0x90, 0x6a, 0x3e, 0xf1, 0x19, 0xeb, 0xbd,
  0xc8, 0xc6, 0xa7, 0x3e, 0xf6, 0x6b, 0x1b, 0x3e, 0x14, 0x0b, 0x73, 0xbd,
  0x6e, 0x47, 0x11, 0xbd, 0x7d, 0x92, 0x6f, 0x3e, 0xec, 0x4b, 0x35, 0x3e,
  0x11, 0x14, 0xfa, 0xbe, 0xa5, 0x6b, 0x78, 0x3c, 0x1c, 0x22, 0xc5, 0x3d,
  0x34, 0xd6, 0x92, 0x3e, 0xd8, 0xfd, 0x8a, 0xbe, 0x43, 0x7b, 0x0d, 0x3d,
  0x66, 0xd8, 0xb1, 0xbd, 0x8a, 0x23, 0x20, 0x3e, 0x5a, 0xa9, 0x1a, 0xbe,
  0x2f, 0x2b, 0xb6, 0xbd, 0x37, 0x69, 0x4c, 0x3e, 0xb2, 0xd7, 0xf9, 0xbc,
  0x97, 0x4c, 0x24, 0x3e, 0xad, 0x92, 0x42, 0xba, 0xcf, 0x55, 0x17, 0xbe,
  0xf0, 0x1b, 0x6a, 0xbe, 0x6f, 0xb0, 0xa7, 0xbe, 0xeb, 0xae, 0xf6, 0x3c,
  0xe4, 0x00, 0xab, 0xbd, 0xd2, 0xa1, 0x02, 0xbe, 0x56, 0xdd, 0x06, 0xbe,
  0xd2, 0x0f, 0x91, 0x3e, 0xea, 0xa0, 0xf5, 0xbc, 0xfd, 0x44, 0x91, 0x3e,
  0x78, 0xc4, 0xc5, 0xbd, 0x31, 0x3a, 0x35, 0x3c, 0x7d, 0xde, 0x89, 0x3e,
  0xe5, 0x48, 0x16, 0xbe, 0xd1, 0x64, 0xc2, 0xbd, 0x5c, 0x35, 0x84, 0x3d,
  0x6a, 0x2c, 0x56, 0x3e, 0x65, 0xa7, 0x99, 0xbd, 0x7e, 0x33, 0x17, 0xbf,
  0x43, 0xa9, 0xaa, 0x3d, 0x1c, 0xdb, 0x5f, 0xbd, 0x73, 0x69, 0x06, 0x3e,
  0xde, 0xf4, 0x12, 0xbf, 0x0a, 0x7e, 0x86, 0xbd, 0xfb, 0x13, 0x11, 0xbe,
  0x22, 0xb2, 0xc3, 0x3d, 0x63, 0xb0, 0x96, 0xbd, 0x1d, 0x44, 0xdf, 0xbd,
  0xe8, 0x9d, 0xde, 0x3e, 0xbb, 0xc7, 0x07, 0x3d, 0xe5, 0xa4, 0xa6, 0x3d,
  0x8f, 0x4f, 0x52, 0xbd, 0x50, 0xc1, 0x9b, 0x3d, 0xf1, 0x32, 0xc6, 0x3d,
  0x5a, 0x1e, 0x1c, 0xbe, 0x2c, 0x42, 0xb8, 0xbd, 0x09, 0xd3, 0xba, 0xbd,
  0x7b, 0x61, 0xcd, 0xbd, 0xb2, 0x4c, 0x8a, 0xbe, 0xb6, 0x63, 0xd9, 0x3d,
  0xd1, 0x84, 0x82, 0xbd, 0xba, 0x5a, 0x43, 0x3e, 0xeb, 0xea, 0x6a, 0x3e,
  0x7f, 0xe1, 0x19, 0x3c, 0x78, 0xb1, 0x61, 0x3e, 0x43, 0x42, 0xe1, 0xbd,
  0xfe, 0x4e, 0x09, 0x3d, 0x7e, 0x39, 0x79, 0xbd, 0x65, 0xb5, 0x39, 0x3e,
  0xa4, 0x85, 0x5f, 0x3d, 0xd2, 0x77, 0x67, 0xbe, 0x82, 0xed, 0xab, 0x3d,
  0x2e, 0x87, 0x53, 0x3e, 0x53, 0x7c, 0xb1, 0x3d, 0x09, 0xdb, 0x88, 0xbd,
  0x0f, 0x75, 0x78, 0xbe, 0xdb, 0x11, 0x1d, 0xbe, 0x0f, 0xba, 0x7e, 0x3e,
  0xd7, 0x22, 0x2e, 0x3e, 0xc5, 0x57, 0x30, 0xbe, 0xed, 0xec, 0xc3, 0x3e,
  0xdb, 0x51, 0xf8, 0x3d, 0x72, 0xc6, 0xbb, 0x3e, 0xa0, 0xf4, 0x52, 0xbe,
  0xff, 0x18, 0xbd, 0x3e, 0xd7, 0xf6, 0x84, 0xbe, 0x6c, 0xf5, 0xc2, 0x3e,
  0x42, 0x71, 0x3f, 0x3e, 0x7c, 0xb6, 0xae, 0x3e, 0xe4, 0x38, 0x71, 0xbe,
  0x62, 0x14, 0xe2, 0x3e, 0x0e, 0xd5, 0xf8, 0xbd, 0xb8, 0x00, 0xdf, 0xbc,
  0x7c, 0xa3, 0xaf, 0x3e, 0x46, 0x5d, 0xa6, 0xbe, 0xe8, 0x7f, 0x1b, 0x3d,
  0x0a, 0x66, 0x3d, 0x3e, 0x83, 0xb8, 0x4d, 0xbe, 0x57, 0x53, 0xaa, 0x3e,
  0x93, 0xd3, 0x94, 0xbe, 0x38, 0x2c, 0x99, 0x3d, 0x9b, 0x67, 0xf3, 0xbd,
  0x0a, 0x8d, 0x66, 0x3e, 0xb8, 0xad, 0x18, 0x3e, 0x1a, 0x3b, 0xbc, 0x3c,
  0x7e, 0xe2, 0x6b, 0xbd, 0x6e, 0x62, 0x02, 0xbe, 0xae, 0x25, 0x02, 0x3e,
  0xd3, 0x97, 0x08, 0xbe, 0xe3, 0x56, 0xa1, 0x3e, 0x21, 0xfb, 0x9a, 0xbc,
  0x1a, 0x82, 0x2e, 0xbe, 0x34, 0x51, 0xda, 0x3e, 0x21, 0x6b, 0xb1, 0xbd,
  0xcf, 0x8c, 0x27, 0xbe, 0x0c, 0xcd, 0x00, 0xbe, 0xfe, 0xa7, 0x57, 0x3e,
  0x67, 0x5e, 0xac, 0xbd, 0x0a, 0x19, 0xa0, 0x3e, 0x9a, 0xf9, 0x30, 0xbe,
  0xad, 0xd3, 0x4b, 0x3d, 0x24, 0x0e, 0x85, 0xbd, 0x66, 0x77, 0xed, 0x3d,
  0x13, 0xc5, 0x98, 0x3a, 0x93, 0x53, 0x92, 0xbd, 0xca, 0x29, 0xce, 0x3d,
  0xea, 0x91, 0x21, 0xbd, 0x0c, 0x4e, 0xcc, 0xbd, 0xf9, 0x12, 0xa1, 0x3e,
  0xc2, 0xf5, 0xc8, 0xbc, 0x4f, 0xfe, 0x42, 0x3d, 0xa6, 0x44, 0x47, 0x3d,
  0x64, 0xbc, 0x64, 0xbe, 0x57, 0x28, 0x85, 0xbe, 0xcb, 0x62, 0x8e, 0x3e,
  0xa3, 0x04, 0x4b, 0x3c, 0x26, 0x54, 0x90, 0x3c, 0x08, 0x50, 0xc4, 0x3d,
  0x92, 0x5b, 0x07, 0x3e, 0x51, 0x58, 0x53, 0x3d, 0xa9, 0x77, 0xef, 0x3c,
  0x54, 0x57, 0x6d, 0x3e, 0xc0, 0x53, 0x04, 0xbe, 0x7e, 0xe7, 0x42, 0xbc,
  0x32, 0x59, 0xcd, 0x3d, 0x12, 0x94, 0x5c, 0xbd, 0x49, 0x6d, 0x12, 0x3e,
  0x88, 0xae, 0x89, 0x3d, 0x14, 0x4d, 0xec, 0xbd, 0x4f, 0xd3, 0x09, 0xbe,
  0x9e, 0xa5, 0x1b, 0x3e, 0x92, 0x87, 0x1b, 0xbe, 0x20, 0xfa, 0x48, 0x3e,
  0x6d, 0x9d, 0xcd, 0x3d, 0xdf, 0xad, 0xec, 0x3d, 0xe2, 0xb4, 0xdc, 0x3c,
  0x5e, 0x23, 0xad, 0xbc, 0xf8, 0x9e, 0xed, 0xb8, 0xf8, 0x81, 0x40, 0xbe,
  0x80, 0x3d, 0xad, 0xbb, 0x34, 0x0c, 0x92, 0x3e, 0xa6, 0x85, 0xd5, 0xbd,
  0x3f, 0x8e, 0x81, 0x3d, 0xf6, 0x26, 0xac, 0xbd, 0x06, 0x70, 0xa9, 0x3c,
  0x9d, 0xda, 0xd8, 0x3d, 0xde, 0x82, 0x84, 0x3c, 0x87, 0x98, 0x16, 0x3e,
  0xa9, 0xa6, 0x3a, 0x3e, 0xb1, 0x55, 0x9e, 0xbe, 0xb7, 0x21, 0x52, 0x3e,
  0x0d, 0x30, 0x80, 0x3c, 0xcb, 0x31, 0x71, 0x3c, 0x7b, 0x46, 0xdf, 0xbd,
  0x73, 0x1e, 0xe3, 0xbd, 0xa5, 0x6a, 0x94, 0x3d, 0xe5, 0xe8, 0x07, 0x3e,
  0x70, 0x1d, 0x87, 0xbe, 0x5a, 0xfc, 0x45, 0xbe, 0x75, 0x5c, 0xc4, 0xbc,
  0x60, 0x7a, 0xec, 0xbd, 0x57, 0x60, 0x86, 0xbd, 0x43, 0x5c, 0xd3, 0xbd,
  0xa3, 0xf3, 0x92, 0x3d, 0xf0, 0x4e, 0x5b, 0xbd, 0x4a, 0x80, 0xb0, 0x3c,
  0xfa, 0x87, 0x44, 0x3e, 0x77, 0xf3, 0x70, 0xbe, 0xab, 0xf7, 0x1b, 0xbe,
  0xe6, 0x39, 0xa2, 0x3d, 0x33, 0x68, 0x87, 0x3e, 0xbf, 0x0e, 0x36, 0xbd,
  0xe9, 0xeb, 0x8a, 0x3d, 0xc5, 0x21, 0x75, 0x3b, 0x2a, 0xf8, 0x3f, 0xbd,
  0xc6, 0xba, 0x51, 0xbe, 0x2f, 0xdd, 0xd4, 0x3e, 0x73, 0x01, 0xaa, 0xbe,
  0x7f, 0x31, 0x7a, 0x3e, 0x5e, 0xf7, 0xd0, 0x3d, 0x7e, 0xf5, 0xcd, 0x3d,
  0xec, 0x90, 0x72, 0xbe, 0x64, 0xee, 0xcf, 0x3e, 0xf0, 0x0d, 0x3f, 0xbe,
  0x73, 0xf3, 0x82, 0xbd, 0xba, 0x00, 0xa7, 0x3e, 0x97, 0x37, 0x5b, 0xbe,
  0xe7, 0x49, 0xb5, 0xbd, 0x75, 0xe0, 0xe6, 0x3e, 0x97, 0x7e, 0x62, 0xbe,
  0x05, 0x89, 0xee, 0x3e, 0xfc, 0xc9, 0x29, 0x3e, 0x7b, 0x1c, 0x32, 0x3d,
  0x72, 0xc2, 0x30, 0x3e, 0x76, 0xf7, 0x33, 0xbe, 0x1d, 0xcb, 0xc3, 0xbd,
  0x29, 0xac, 0x32, 0xbe, 0xe4, 0xf2, 0x48, 0xbe, 0x12, 0x8d, 0x16, 0x3e,
  0xe9, 0x82, 0x48, 0xbc, 0xfa, 0x37, 0x25, 0xbe, 0xeb, 0xe2, 0x3d, 0xbe,
  0xf5, 0xd2, 0x84, 0x3c, 0x5c, 0x56, 0x88, 0xbe, 0xbc, 0x6c, 0x29, 0x3d,
  0xfc, 0x52, 0x81, 0x3e, 0x67, 0xf2, 0xa3, 0xbc, 0x56, 0xdd, 0xd4, 0xbd,
  0x12, 0x4b, 0x3d, 0x3e, 0x7b, 0xdd, 0x11, 0x3e, 0x07, 0xad, 0xb9, 0x3c,
  0x5a, 0x71, 0x2a, 0xbe, 0x3e, 0xa5, 0xb8, 0xbe, 0x57, 0xc3, 0x46, 0x3b,
  0x06, 0xff, 0xa0, 0xbd, 0x11, 0x88, 0x27, 0x3e, 0x63, 0x28, 0x8c, 0xbc,
  0xf4, 0xff, 0x20, 0x3d, 0x8e, 0x9f, 0xb5, 0x3c, 0xe5, 0x7d, 0x43, 0xbe,
  0x41, 0xc6, 0x98, 0x3d, 0xf5, 0x0b, 0x06, 0x3e, 0xa0, 0x73, 0xb6, 0x3d,
  0x3d, 0x5c, 0x65, 0xbd, 0xff, 0x2e, 0x88, 0xbd, 0xe5, 0x1c, 0x3d, 0x3e,
  0x29, 0x92, 0x73, 0x3c, 0xd0, 0x50, 0x22, 0xbe, 0xe4, 0x2e, 0x95, 0xbe,
  0x0b, 0x8f, 0x36, 0x3e, 0xed, 0x13, 0x96, 0xbb, 0x7e, 0x94, 0x3b, 0xbd,
  0xe9, 0x56, 0x94, 0xbd, 0x3a, 0xe0, 0x54, 0xbe, 0x60, 0x6d, 0x18, 0x3e,
  0xf7, 0x73, 0x83, 0xbe, 0xae, 0x83, 0x88, 0xbe, 0x34, 0x0c, 0xda, 0x3d,
  0x29, 0xdf, 0xb8, 0xbd, 0xb8, 0xaa, 0x24, 0x3e, 0x65, 0xef, 0x22, 0xbe,
  0xf9, 0xf1, 0x50, 0x3e, 0xc1, 0x03, 0x78, 0xbe, 0x17, 0x0a, 0xfa, 0xbd,
  0xef, 0x2d, 0xb3, 0xbe, 0xf3, 0x1c, 0x31, 0x3e, 0xb5, 0x73, 0x11, 0x3e,
  0x40, 0xf0, 0x98, 0xbb, 0x50, 0x7e, 0xcd, 0x3d, 0xf0, 0x8b, 0xa7, 0xbd,
  0xd0, 0xa1, 0xf2, 0xbd, 0x00, 0xba, 0xdb, 0xbd, 0xcf, 0x7f, 0xee, 0x3c,
  0x45, 0x91, 0x88, 0xbd, 0xe4, 0x9b, 0xd5, 0xbd, 0x99, 0x61, 0x17, 0xbe,
  0xc6, 0xdb, 0xbc, 0xbd, 0xd4, 0xbe, 0xfa, 0x3d, 0xe3, 0x20, 0xad, 0xbc,
  0xc8, 0x52, 0x87, 0xbe, 0x61, 0x2d, 0x88, 0xbe, 0x45, 0x3b, 0xf4, 0x3c,
  0x4b, 0x35, 0x39, 0xbe, 0xa0, 0xd5, 0x5e, 0x3e, 0x1e, 0xc8, 0xc2, 0xbc,
  0xf8, 0x03, 0xe9, 0x3d, 0x85, 0x83, 0xa2, 0x3d, 0xed, 0x74, 0x8b, 0xbe,
  0x8e, 0xe5, 0x28, 0xbe, 0x46, 0x77, 0x84, 0xbd, 0x76, 0xd1, 0xb9, 0xbb,
  0x35, 0xcf, 0xb0, 0xbd, 0x80, 0xbd, 0x46, 0xbd, 0xce, 0x88, 0x1c, 0x3e,
  0x30, 0xe4, 0x6a, 0xbe, 0x30, 0x65, 0xdc, 0xbe, 0x55, 0x44, 0x2b, 0xbe,
  0x78, 0xe5, 0x00, 0x3e, 0x03, 0x96, 0xcf, 0x3b, 0xe9, 0xd4, 0xab, 0x3d,
  0xee, 0x16, 0xe7, 0xbd, 0x54, 0x05, 0x4a, 0xbe, 0x63, 0x1f, 0x26, 0x3e,
  0xc7, 0xd6, 0xca, 0xbd, 0x0d, 0xbf, 0xaf, 0xbd, 0xcf, 0xa4, 0x9b, 0x3e,
  0x5a, 0x99, 0x0f, 0x3e, 0x64, 0x9b, 0xba, 0x3d, 0xfa, 0x48, 0xa7, 0xbd,
  0x40, 0x10, 0x1e, 0x3e, 0x9e, 0x40, 0x27, 0xbd, 0xd7, 0x0c, 0xab, 0x3b,
  0x37, 0xc1, 0x7c, 0xbd, 0xe7, 0x07, 0xa5, 0x3b, 0x35, 0x24, 0x00, 0x3d,
  0x04, 0x49, 0x07, 0xbc, 0x8b, 0x37, 0x8e, 0xbd, 0xcf, 0xfe, 0x38, 0xbd,
  0x40, 0x8f, 0xd5, 0x3c, 0x2d, 0x61, 0x1f, 0xbe, 0x47, 0xc7, 0x4f, 0xbe,
  0x42, 0xa7, 0xfa, 0xbd, 0xda, 0x09, 0x76, 0x3c, 0x48, 0x10, 0xd5, 0x3d,
  0x4d, 0xf7, 0x2e, 0x3e, 0xf1, 0x25, 0x02, 0xbb, 0x0a, 0xbf, 0xd1, 0xbd,
  0x7e, 0x8d, 0x45, 0x3d, 0x13, 0x7b, 0x3a, 0xbe, 0x90, 0x04, 0x54, 0x3d,
  0x3c, 0xc2, 0x22, 0x3d, 0x78, 0x71, 0xff, 0xbd, 0x37, 0x16, 0xc5, 0xbe,
  0x65, 0x06, 0x2f, 0xbe, 0xb0, 0x42, 0xdc, 0x3d, 0x21, 0x3a, 0x1b, 0xbe,
  0x36, 0xed, 0x5a, 0x3d, 0x2a, 0xd3, 0x5a, 0x3e, 0xce, 0x11, 0x7d, 0x3c,
  0x1f, 0xe9, 0x30, 0x3d, 0xb9, 0x14, 0xdc, 0xbc, 0xa3, 0x2b, 0xca, 0x3b,
  0xa3, 0x01, 0x72, 0x3d, 0x76, 0xb2, 0x97, 0xbc, 0xf9, 0xf7, 0x17, 0xbe,
  0x99, 0x1d, 0xde, 0x3d, 0x94, 0x4b, 0xed, 0x3d, 0xf6, 0x3c, 0x6a, 0x3e,
  0x9d, 0xf4, 0x8d, 0xbe, 0xe5, 0x16, 0x0a, 0x3e, 0x09, 0x68, 0x97, 0x3d,
  0xfa, 0xc2, 0x52, 0xbd, 0xe4, 0xde, 0x8e, 0x3d, 0x21, 0xd3, 0x15, 0x3d,
  0x22, 0x2e, 0x01, 0xbe, 0xd2, 0x47, 0x0b, 0x3e, 0x3d, 0x3c, 0xd5, 0xbd,
  0x21, 0xf3, 0xaa, 0x3d, 0xa8, 0xc5, 0x8a, 0xbe, 0xf6, 0x5b, 0xa7, 0x3c,
  0xad, 0xd6, 0x18, 0xbd, 0x3a, 0x96, 0x77, 0xbd, 0xe3, 0x12, 0x52, 0x3d,
  0xab, 0x99, 0x9f, 0x3e, 0x45, 0x03, 0xb5, 0xbd, 0xf7, 0xa7, 0xcd, 0x3d,
  0xf1, 0x03, 0x3c, 0x3e, 0x7b, 0xfa, 0xfc, 0x3d, 0x3e, 0xdd, 0x75, 0xbd,
  0x4f, 0x71, 0xdb, 0x3d, 0x4b, 0x45, 0x8b, 0xbe, 0xd7, 0x9a, 0x6f, 0x3d,
  0xbe, 0x13, 0xad, 0x3d, 0xcc, 0x41, 0x67, 0xbd, 0x0f, 0xac, 0x21, 0xbc,
  0xd0, 0xb0, 0x1e, 0x3b, 0x00, 0xd0, 0x03, 0xbe, 0xc9, 0x17, 0x71, 0x3e,
  0xb8, 0x47, 0x6a, 0xbe, 0x5e, 0x72, 0xb6, 0x3e, 0x38, 0xf1, 0x38, 0xbe,
  0xbf, 0xf1, 0xd2, 0x3d, 0xfa, 0xc0, 0xfa, 0x3d, 0x83, 0xc6, 0x08, 0x3e,
  0xa8, 0x96, 0x3c, 0xbe, 0x16, 0x59, 0x8e, 0x3e, 0x96, 0x80, 0x27, 0xbe,
  0x02, 0xae, 0xa6, 0x3d, 0xdb, 0x33, 0xd5, 0x3c, 0x95, 0x1e, 0x40, 0x3e,
  0xbf, 0xe4, 0x37, 0xbe, 0x4f, 0x6b, 0x9b, 0xbc, 0xd4, 0x4a, 0x06, 0xbe,
  0x38, 0x6c, 0x74, 0x3e, 0xad, 0x4d, 0x9a, 0xbd, 0x81, 0xdd, 0x44, 0x3e,
  0x66, 0x90, 0x8f, 0xbd, 0xd1, 0x24, 0x2d, 0xbd, 0x9e, 0x42, 0x72, 0x3d,
  0x41, 0xe8, 0x61, 0x3e, 0x51, 0x87, 0x6c, 0x3e, 0xcc, 0xd3, 0xa5, 0x3e,
  0x8c, 0x8f, 0x9e, 0xbb, 0xa9, 0x99, 0x04, 0xbe, 0x39, 0xa8, 0xe3, 0xbc,
  0x42, 0xbf, 0xf3, 0x3b, 0xcf, 0xff, 0x8e, 0x3d, 0xfd, 0xc4, 0xf2, 0xbc,
  0xa9, 0x1a, 0x12, 0x3d, 0xf3, 0x44, 0x5c, 0x3b, 0x38, 0x88, 0xce, 0xbd,
  0x88, 0x80, 0x5c, 0x3e, 0x8e, 0x09, 0xbd, 0xbe, 0xc7, 0x2d, 0x6d, 0x3e,
  0x8d, 0xc4, 0x0e, 0xbd, 0x5b, 0x5a, 0x99, 0xbd, 0x20, 0xb0, 0xa8, 0x39,
  0xe6, 0x27, 0x69, 0x3e, 0xee, 0xdf, 0x87, 0xbd, 0x89, 0x2b, 0x1a, 0xbe,
  0xee, 0x3e, 0x99, 0x3e, 0xc4, 0x25, 0x8d, 0xbb, 0xed, 0xe4, 0x56, 0x3d,
  0x83, 0x4a, 0xe5, 0x3d, 0x4b, 0x9a, 0x8b, 0x3d, 0xac, 0xa3, 0xa3, 0x3c,
  0xc0, 0xae, 0xcd, 0x3d, 0x57, 0x9f, 0xb7, 0xbd, 0x71, 0x7d, 0x05, 0xbf,
  0x6e, 0x31, 0xe5, 0x3c, 0xcc, 0x73, 0x12, 0x3d, 0x19, 0xae, 0xa9, 0xbe,
  0xfd, 0x53, 0x59, 0x3e, 0xd0, 0x00, 0xd0, 0x3c, 0x3d, 0xcd, 0x99, 0xbd,
  0x8f, 0xc6, 0x9a, 0x3d, 0xe0, 0xc9, 0x8e, 0xbe, 0xb5, 0x35, 0xbf, 0xbd,
  0xd6, 0x97, 0x69, 0xbc, 0x33, 0x3f, 0x46, 0xbe, 0xb0, 0xe0, 0x83, 0x3d,
  0xb2, 0xed, 0x7a, 0x3e, 0xee, 0x18, 0xa9, 0xbd, 0x24, 0x7a, 0xe6, 0x3c,
  0xfc, 0x8e, 0xa6, 0xbd, 0xb4, 0x88, 0x90, 0xbd, 0x69, 0x7c, 0x92, 0xbc,
  0x0d, 0x05, 0xee, 0xbc, 0xb0, 0x98, 0xb3, 0x3d, 0x81, 0x65, 0x41, 0xbd,
  0x9a, 0xdb, 0xc3, 0x3d, 0xc0, 0x4e, 0x87, 0x3e, 0x21, 0x94, 0xcd, 0x3d,
  0x02, 0x96, 0x6e, 0xbd, 0x11, 0x5c, 0x34, 0x3d, 0x93, 0x3d, 0x04, 0xbe,
  0x37, 0x05, 0x50, 0xbd, 0xcc, 0xe1, 0x04, 0x3e, 0x9c, 0x9a, 0x5a, 0x3e,
  0x5e, 0x4d, 0x8d, 0x3e, 0xb6, 0x94, 0x88, 0xbd, 0xf4, 0xc0, 0x94, 0xbc,
  0xe3, 0x0b, 0x84, 0xbd, 0x27, 0x12, 0x9b, 0x3c, 0x71, 0xe8, 0x36, 0x3e,
  0xee, 0xb0, 0x4b, 0x3e, 0xbe, 0x3a, 0x42, 0xbe, 0x23, 0x63, 0x99, 0xbb,
  0x4b, 0x29, 0x02, 0x3e, 0xaa, 0x13, 0xa0, 0x3d, 0x34, 0x22, 0x2e, 0x3e,
  0x84, 0x41, 0xf8, 0xbd, 0xfb, 0xb9, 0xa8, 0x3b, 0x62, 0x70, 0xef, 0x3c,
  0xf0, 0x34, 0xfd, 0x3c, 0x99, 0xc6, 0x73, 0xbc, 0x57, 0xa9, 0xeb, 0xbd,
  0x0e, 0x7f, 0x97, 0xbb, 0xef, 0x27, 0x49, 0x3e, 0xed, 0x82, 0x25, 0x3c,
  0xf3, 0x6b, 0xbf, 0x3c, 0x1e, 0x7e, 0x08, 0x3e, 0x8a, 0x1a, 0xc9, 0x3a,
  0x17, 0xc8, 0xdf, 0xbc, 0x0c, 0xb6, 0xa1, 0x3d, 0x54, 0xaf, 0xff, 0xbc,
  0xf8, 0x1d, 0x2a, 0x3d, 0xfa, 0x20, 0x27, 0xbe, 0xec, 0x38, 0xe6, 0xbc,
  0x4d, 0xfa, 0xab, 0x3d, 0x1d, 0x08, 0x63, 0x3e, 0x2f, 0x44, 0x5d, 0x3e,
  0x37, 0x19, 0x1d, 0xbe, 0x84, 0xdf, 0x2c, 0x3e, 0x37, 0x8f, 0x54, 0xbd,
  0x47, 0xf4, 0xd0, 0x3d, 0x79, 0x4e, 0xcb, 0xbd, 0xd8, 0x65, 0x4e, 0x3d,
  0xa9, 0x76, 0x9a, 0xbe, 0xf7, 0xbc, 0x14, 0x3e, 0x3c, 0xb5, 0x57, 0x3d,
  0x33, 0xd4, 0x5e, 0x3d, 0xee, 0xed, 0x18, 0x3d, 0xc5, 0x65, 0xba, 0xbd,
  0xc9, 0x2c, 0xd2, 0xbc, 0xc6, 0xa7, 0xa7, 0x3d, 0x61, 0x46, 0xc6, 0x3c,
  0xdd, 0x00, 0xd1, 0x3e, 0x59, 0xce, 0x43, 0xbe, 0xc1, 0x5a, 0x25, 0x3d,
  0x28, 0x50, 0x3c, 0xbc, 0x24, 0xbe, 0x37, 0x3c, 0x21, 0x76, 0x0a, 0xbd,
  0x2b, 0xef, 0xf5, 0xbb, 0x36, 0x8f, 0xec, 0x3d, 0xd0, 0xc5, 0x8d, 0xbc,
  0x69, 0x80, 0x0d, 0xbe, 0x87, 0x2e, 0x84, 0x3e, 0xe4, 0x7c, 0x06, 0x3e,
  0x41, 0x1d, 0x5d, 0xbd, 0x3d, 0xf7, 0x07, 0x3d, 0x92, 0x10, 0x48, 0x3e,
  0x9b, 0xb8, 0x2c, 0xbe, 0xe8, 0x69, 0x1b, 0x3c, 0x1e, 0x90, 0xf8, 0xbd,
  0xbd, 0x97, 0xac, 0xbd, 0xf8, 0x30, 0xa0, 0x3e, 0x77, 0x54, 0xc5, 0xbc,
  0x43, 0xc2, 0x6e, 0xbe, 0xc6, 0x51, 0x29, 0x3e, 0x69, 0x8c, 0x90, 0xbd,
  0x0b, 0x71, 0x12, 0x3e, 0x36, 0x83, 0x5b, 0xbe, 0x0e, 0x50, 0x03, 0xbd,
  0xe3, 0xf1, 0x6b, 0x3e, 0xfe, 0xb7, 0x5e, 0x3d, 0x75, 0x49, 0xc4, 0xbe,
  0x33, 0xa1, 0x06, 0xbd, 0x95, 0xb4, 0xc9, 0xbc, 0x72, 0xda, 0x3f, 0x3e,
  0x7f, 0x0e, 0x20, 0xbe, 0x8b, 0x47, 0xf5, 0x3d, 0x5a, 0x89, 0x8f, 0x3d,
  0xd3, 0x32, 0x9e, 0xbe, 0x1b, 0x59, 0x91, 0xbe, 0xc0, 0x11, 0xe3, 0x3d,
  0x7e, 0xdf, 0x4e, 0xbe, 0x35, 0x73, 0x04, 0x3d, 0xad, 0x17, 0x15, 0x3e,
  0x71, 0x67, 0x4f, 0xbe, 0x55, 0x45, 0x65, 0x40, 0xba, 0x97, 0xab, 0xbe,
  0xd7, 0x64, 0x2c, 0xbe, 0x94, 0x1d, 0x60, 0xbe, 0xb2, 0x12, 0x1c, 0x40,
  0xcf, 0xb6, 0xd6, 0xbd, 0xa8, 0x64, 0x9f, 0xbe, 0xd1, 0xd4, 0x68, 0xbe,
  0x93, 0x28, 0x72, 0xbd, 0xc2, 0x53, 0x11, 0xbe, 0x4d, 0x37, 0x05, 0x3e,
  0xe8, 0x2d, 0x7f, 0xbe, 0xa0, 0x17, 0xae, 0x3f, 0xa2, 0x6e, 0x92, 0xbd,
  0xd8, 0x78, 0x8d, 0x3e, 0x89, 0xb1, 0x19, 0x3e, 0x0b, 0x9f, 0x5a, 0x40,
  0x0d, 0x53, 0x59, 0xbe, 0xd2, 0x8c, 0x0c, 0xbe, 0x66, 0x33, 0xce, 0xbd,
  0x8b, 0x08, 0x8a, 0x3f, 0x72, 0x61, 0x4b, 0x3d, 0xac, 0xc9, 0x82, 0xbc,
  0x8e, 0x91, 0xd7, 0x3c, 0xbb, 0x1f, 0x04, 0xbe, 0xa2, 0x21, 0x55, 0xbc,
  0x33, 0x70, 0xc0, 0xbd, 0x2d, 0x52, 0x7d, 0xbe, 0x7f, 0x61, 0x09, 0x3f,
  0xe2, 0x20, 0x8f, 0xbd, 0xb9, 0xf3, 0x84, 0x3e, 0x6d, 0xde, 0x68, 0xbe,
  0xbb, 0x80, 0x29, 0x40, 0x7e, 0xe5, 0x99, 0xbe, 0xed, 0xc3, 0x9b, 0xbe,
  0x76, 0x14, 0xba, 0x3d, 0x20, 0x9f, 0x6a, 0x3f, 0xb8, 0x4c, 0x9f, 0xbd,
  0xa5, 0x09, 0x7e, 0xbe, 0x12, 0x12, 0x27, 0xbd, 0xc4, 0x8e, 0x37, 0x3d,
  0x96, 0xb4, 0x8e, 0xbe, 0x73, 0xf8, 0x54, 0x3e, 0x07, 0xeb, 0xb0, 0xbd,
  0x0b, 0x56, 0x7e, 0x3f, 0x15, 0x5c, 0x0b, 0x3e, 0xdb, 0x23, 0x59, 0x3e,
  0x84, 0x92, 0xf6, 0x3d, 0xfe, 0x1d, 0xe7, 0x3f, 0xa7, 0xec, 0xb3, 0x38,
  0x96, 0x59, 0x4c, 0xbe, 0x8f, 0x3a, 0x43, 0x3d, 0xe7, 0xcf, 0xa0, 0x3f,
  0x8f, 0x66, 0x89, 0xbe, 0xd8, 0x1e, 0x78, 0xbe, 0x2d, 0x6e, 0x65, 0xbe,
  0xa4, 0x86, 0x1e, 0x3e, 0xf6, 0x17, 0x2f, 0xbe, 0x71, 0x17, 0x03, 0xbd,
  0x77, 0xa2, 0xf7, 0x3c, 0xa3, 0xa1, 0x14, 0x3f, 0x35, 0xfa, 0xcc, 0x3c,
  0x99, 0x21, 0x70, 0x3e, 0x44, 0xff, 0x3f, 0xbe, 0x8e, 0xad, 0x6c, 0x40,
  0xdd, 0xca, 0x37, 0xbe, 0xd8, 0x46, 0x71, 0xbe, 0xc6, 0xdb, 0xba, 0x3d,
  0xf7, 0xa6, 0xff, 0x3f, 0x4e, 0x3f, 0x37, 0xbe, 0xfa, 0x63, 0x6f, 0xbe,
  0x48, 0xae, 0x8c, 0x3c, 0x9d, 0xd3, 0x36, 0xbd, 0x3c, 0x43, 0xa1, 0xbd,
  0xc0, 0x1d, 0x11, 0x3e, 0x99, 0x92, 0xde, 0x3d, 0xb0, 0x3f, 0x3f, 0x3f,
  0xe3, 0x14, 0xa1, 0xbe, 0xea, 0xe2, 0x2c, 0x3e, 0x6c, 0x05, 0x5d, 0xbe,
  0xe2, 0x0e, 0x22, 0x40, 0xc7, 0x44, 0x01, 0xbe, 0x4e, 0x95, 0xda, 0xbe,
  0x76, 0xc9, 0x22, 0xbe, 0x51, 0xb1, 0x0d, 0x40, 0x62, 0x4e, 0x1d, 0xbe,
  0x13, 0x00, 0x52, 0xbe, 0xe4, 0xe1, 0x8a, 0xbd, 0x75, 0x59, 0x2d, 0xbe,
  0x8e, 0x14, 0x93, 0xbe, 0x6f, 0x8c, 0xa3, 0x3e, 0x7c, 0x76, 0x33, 0x3d,
  0xc3, 0x22, 0x39, 0x3f, 0x64, 0x4b, 0xdd, 0x3d, 0xdf, 0x28, 0xa9, 0x3b,
  0x16, 0x9e, 0xc1, 0xbe, 0x64, 0x96, 0xbb, 0x3f, 0x0e, 0x89, 0xb5, 0xbe,
  0x34, 0xd9, 0x74, 0xbe, 0x7e, 0xb6, 0xba, 0xbe, 0x66, 0xfd, 0x01, 0x3f,
  0xd9, 0x34, 0x66, 0xbe, 0x83, 0x5d, 0xa3, 0xbe, 0x33, 0x02, 0x49, 0xbe,
  0x9e, 0x97, 0x16, 0xbf, 0x0e, 0x04, 0x68, 0xbe, 0x36, 0xdf, 0x65, 0xbe,
  0xf3, 0x13, 0x92, 0xbe, 0xac, 0x13, 0x15, 0xbe, 0xf0, 0x43, 0x02, 0x3e,
  0xfe, 0x7f, 0xc8, 0x3d, 0xde, 0x23, 0xb5, 0x3d, 0x56, 0x98, 0xc4, 0x3d,
  0xe7, 0xdb, 0x0a, 0x3c, 0xb2, 0x92, 0x33, 0xbd, 0x1e, 0x13, 0xa9, 0xbd,
  0xe4, 0x6b, 0x89, 0xbb, 0xd7, 0xaf, 0x82, 0xbe, 0xf3, 0xea, 0x94, 0x3e,
  0x92, 0x12, 0xd2, 0xbe, 0x5a, 0x8b, 0x7d, 0x3e, 0x81, 0x4b, 0xbd, 0x3b,
  0x92, 0xfc, 0x55, 0xbf, 0xf2, 0xbb, 0xa3, 0x3a, 0x5c, 0x73, 0x0d, 0xbe,
  0x22, 0x45, 0x92, 0x3d, 0xc1, 0xab, 0x88, 0x3c, 0x0e, 0xb2, 0x6d, 0x3e,
  0xf0, 0xfc, 0xf0, 0xbd, 0xfb, 0xff, 0x15, 0xbd, 0x75, 0x63, 0x3f, 0xbd,
  0x8b, 0x79, 0x84, 0x3d, 0xdc, 0x83, 0x06, 0x3e, 0x72, 0x23, 0xb8, 0xbd,
  0x33, 0x6e, 0xf2, 0x3d, 0x38, 0xae, 0x9d, 0xbe, 0x36, 0xd9, 0x59, 0x3e,
  0x2d, 0xad, 0x91, 0x3d, 0xef, 0xbe, 0xb6, 0xbe, 0x49, 0x2b, 0xe1, 0x3c,
  0xa8, 0x54, 0x9a, 0xbe, 0x5f, 0xda, 0x39, 0x3d, 0xd9, 0x7c, 0xaa, 0xbd,
  0x0f, 0xf4, 0xb2, 0xbd, 0x5d, 0xd0, 0x25, 0xbe, 0x77, 0x22, 0xa8, 0x3c,
  0xa3, 0xca, 0x27, 0x3d, 0xa7, 0x4d, 0x51, 0xbd, 0x07, 0x45, 0x6a, 0xbc,
  0x9d, 0x62, 0x98, 0xbd, 0x31, 0xd8, 0x07, 0x3e, 0x4b, 0xb3, 0x71, 0xbe,
  0x20, 0x57, 0x90, 0x3d, 0x02, 0xb5, 0xb6, 0xbd, 0x41, 0x93, 0xa5, 0xbe,
  0xd7, 0x0f, 0xc1, 0xba, 0x94, 0x6c, 0x34, 0xbd, 0x98, 0xf0, 0x3b, 0x3e,
  0x99, 0x18, 0xea, 0x3b, 0xbf, 0x19, 0x19, 0xbe, 0x2b, 0xaf, 0x2c, 0x3e,
  0xb8, 0x02, 0x22, 0x3d, 0x43, 0xf8, 0x41, 0x3d, 0x57, 0xbc, 0xea, 0x3d,
  0x2c, 0xbe, 0xce, 0x3d, 0x57, 0x83, 0x95, 0xbe, 0x26, 0x60, 0x08, 0x3e,
  0x68, 0x47, 0x64, 0xbe, 0x2c, 0x1a, 0x37, 0x3e, 0xfa, 0xe2, 0x16, 0xbe,
  0x6a, 0x3d, 0xf0, 0xbe, 0x09, 0xae, 0xa8, 0xbc, 0x9e, 0xed, 0x73, 0xbe,
  0x3a, 0x1b, 0xa1, 0x3e, 0x64, 0x77, 0xd8, 0xbd, 0x88, 0x0b, 0xe9, 0x3d,
  0x1e, 0x29, 0x0a, 0x3e, 0xf1, 0x8f, 0x9f, 0xbb, 0xe3, 0x48, 0x2b, 0xbd,
  0x79, 0x4d, 0x16, 0xbe, 0x87, 0x86, 0x1f, 0x3e, 0x42, 0x4b, 0x00, 0xbe,
  0xdc, 0xed, 0x0b, 0xbd, 0xb1, 0x9a, 0xc1, 0xbe, 0xf7, 0xa3, 0xde, 0x3d,
  0x24, 0xf2, 0x36, 0xbe, 0x6a, 0xb5, 0x8b, 0xbe, 0xf0, 0x75, 0x36, 0xbe,
  0x98, 0xc8, 0x53, 0x3c, 0xb2, 0x2a, 0xd4, 0x3e, 0xe2, 0xc1, 0x22, 0x3e,
  0xaa, 0x23, 0xec, 0xbc, 0xe7, 0x20, 0xc3, 0xbc, 0x6b, 0x02, 0x25, 0xbd,
  0xb7, 0x31, 0x57, 0xbe, 0x1d, 0x14, 0x3d, 0xbe, 0x20, 0x9a, 0x3f, 0x3e,
  0xef, 0xe0, 0x80, 0x3c, 0xd5, 0x33, 0xfd, 0x3d, 0x63, 0xc2, 0xad, 0xbe,
  0x3d, 0x9d, 0x54, 0x3e, 0x32, 0xce, 0x13, 0x3e, 0x2a, 0x68, 0xc7, 0xbe,
  0x6f, 0xc8, 0xea, 0x3d, 0xe1, 0x9f, 0xd4, 0xbe, 0x47, 0xd6, 0x63, 0x3d,
  0x32, 0x7a, 0x04, 0xbc, 0x36, 0xff, 0x1d, 0xbd, 0xf4, 0xca, 0x00, 0xbd,
  0x85, 0x2f, 0x32, 0xbe, 0x4b, 0xad, 0x08, 0xbf, 0xf0, 0x32, 0xbe, 0xbc,
  0x92, 0xc2, 0x84, 0xbe, 0x8b, 0xa3, 0x08, 0xbe, 0x71, 0xb9, 0x0b, 0xbe,
  0x2d, 0x78, 0xfd, 0xbe, 0x95, 0x6c, 0x94, 0xbc, 0xc7, 0x70, 0x46, 0x3e,
  0xda, 0x80, 0xfd, 0xbe, 0xa6, 0x40, 0x52, 0xbd, 0xbf, 0x09, 0x4b, 0xbf,
  0x0c, 0x7f, 0x52, 0xbe, 0x13, 0x6a, 0x2a, 0x3d, 0x6c, 0x41, 0x9b, 0x3b,
  0x3e, 0xf0, 0x1e, 0x40, 0xf5, 0xd1, 0x85, 0xbe, 0xdd, 0x37, 0xd2, 0xbd,
  0x75, 0xd6, 0x41, 0xbe, 0xe0, 0xcc, 0x14, 0x40, 0xe1, 0x62, 0xe1, 0xbd,
  0xf2, 0x2e, 0xd0, 0x3c, 0xd3, 0x4d, 0x2d, 0xbd, 0xfe, 0xac, 0x76, 0x3b,
  0xd1, 0xd5, 0xeb, 0xbc, 0xaa, 0xb5, 0x82, 0xbc, 0xe4, 0xf8, 0x8f, 0xbd,
  0xbb, 0x05, 0x80, 0x3f, 0x1d, 0x2d, 0x38, 0x3e, 0xb0, 0x23, 0xfa, 0xbd,
  0xb1, 0x58, 0x78, 0xbd, 0xd8, 0xd6, 0x3f, 0x40, 0xb1, 0xd8, 0x39, 0xbe,
  0x76, 0xdb, 0x2d, 0xbd, 0xd7, 0x31, 0xc0, 0xbd, 0x01, 0x20, 0xfc, 0x3f,
  0x65, 0x4f, 0x16, 0xbe, 0x0d, 0x4f, 0xea, 0xbd, 0x8f, 0xdb, 0x4f, 0xbe,
  0x06, 0x60, 0x33, 0x3e, 0x3d, 0x39, 0x5e, 0xbe, 0x7e, 0x09, 0x2b, 0x3e,
  0x2d, 0x60, 0xab, 0x3d, 0x17, 0x7a, 0x49, 0x3f, 0x3e, 0xef, 0x5e, 0xbd,
  0x89, 0x26, 0x94, 0x3d, 0xa1, 0x2e, 0x5c, 0xbe, 0x1b, 0x38, 0x19, 0x40,
  0x42, 0xdd, 0x30, 0xbe, 0x1b, 0x6c, 0x9f, 0xbd, 0x61, 0xc2, 0x9d, 0xbd,
  0x15, 0x5c, 0x01, 0x40, 0x1c, 0x8d, 0xe4, 0x3c, 0x53, 0x55, 0x97, 0xbe,
  0x89, 0xb8, 0x20, 0xbd, 0x83, 0x87, 0xc8, 0x3d, 0xc2, 0x4c, 0xae, 0xbd,
  0xcb, 0x97, 0x14, 0x3e, 0x0b, 0x8e, 0x2a, 0xbe, 0xcc, 0xa8, 0x1e, 0x3f,
  0xc3, 0x88, 0xda, 0x3d, 0x71, 0x7a, 0xc7, 0xbd, 0xe1, 0x7c, 0x0f, 0xbd,
  0x72, 0x61, 0xb0, 0x3f, 0x6a, 0xa9, 0x22, 0xbe, 0xa7, 0x72, 0xb1, 0x39,
  0x85, 0x87, 0x63, 0xbe, 0x99, 0x4e, 0x04, 0x40, 0x55, 0xd0, 0x46, 0xbe,
  0xbb, 0x7b, 0x42, 0xbe, 0x9c, 0x97, 0x00, 0xbe, 0xc1, 0x47, 0x14, 0xbe,
  0x80, 0xb6, 0x8a, 0x3c, 0x07, 0xb2, 0x1e, 0xbe, 0xf1, 0x0c, 0xe5, 0x3d,
  0xb3, 0xa2, 0x4b, 0x3f, 0x04, 0x11, 0x06, 0x3c, 0x54, 0x11, 0x04, 0x3e,
  0x14, 0x58, 0xad, 0xbd, 0x8b, 0x84, 0x7a, 0x3f, 0x8f, 0x0c, 0x15, 0xbe,
  0x1d, 0xba, 0x84, 0xbe, 0x9d, 0x8a, 0xcf, 0xbd, 0x0c, 0x4e, 0xf3, 0x3f,
  0x7c, 0xa9, 0xef, 0xbd, 0x17, 0x9c, 0x2c, 0xbe, 0xf6, 0x40, 0x2a, 0xbd,
  0xd2, 0xfa, 0xd9, 0x3d, 0xd8, 0x7c, 0xc0, 0xbd, 0xa5, 0x7b, 0x94, 0x3b,
  0xb4, 0x4b, 0x2a, 0xbe, 0x27, 0xa4, 0x41, 0x3f, 0x81, 0xab, 0xc8, 0xbd,
  0x1e, 0xbc, 0x35, 0xbe, 0x20, 0x24, 0x37, 0xbe, 0x9f, 0xed, 0xbe, 0x3f,
  0xae, 0x1c, 0x70, 0xbe, 0x92, 0x39, 0x77, 0xbe, 0x63, 0x18, 0xaf, 0x3c,
  0xbc, 0x55, 0xd5, 0x3f, 0xb5, 0x39, 0x05, 0xbe, 0x69, 0xa9, 0xda, 0xbd,
  0x03, 0x3f, 0x20, 0xbe, 0xb8, 0x00, 0x4e, 0x3d, 0xba, 0xf4, 0x77, 0xbe,
  0xb3, 0xae, 0x4a, 0x3d, 0x75, 0xaf, 0xc2, 0x3d, 0x0d, 0x56, 0xfa, 0x3e,
  0xe3, 0xdc, 0xa7, 0xbc, 0x2c, 0xb6, 0x4c, 0xbe, 0x23, 0xb5, 0x77, 0xbe,
  0xf3, 0x5b, 0x25, 0x3f, 0x9a, 0xaa, 0xd6, 0xbe, 0xe2, 0x17, 0x8c, 0xbe,
  0x7a, 0x37, 0x43, 0xbd, 0x7d, 0xdf, 0xc4, 0x3e, 0xeb, 0xfd, 0x70, 0xbd,
  0xb1, 0xf9, 0xa9, 0xbe, 0xdf, 0x20, 0x01, 0xbe, 0xac, 0x1e, 0xab, 0xbe,
  0xe4, 0xcd, 0x90, 0xbe, 0x57, 0x1e, 0x0f, 0xbe, 0x49, 0xe2, 0xb1, 0xbe,
  0x85, 0xf7, 0x85, 0x3d, 0xfa, 0x9f, 0x1d, 0xbd, 0x56, 0xdd, 0x53, 0xbe,
  0xdf, 0xc1, 0x15, 0x3d, 0x5a, 0xf3, 0x1c, 0x3c, 0xb4, 0xac, 0xac, 0xbd,
  0x3a, 0x91, 0x00, 0xbe, 0x98, 0x16, 0x8d, 0xbd, 0xec, 0x5b, 0x45, 0xbb,
  0xa0, 0xe0, 0x24, 0x3d, 0x66, 0x4f, 0x90, 0xbe, 0x85, 0xf8, 0x81, 0x3d,
  0x0e, 0x55, 0x7d, 0x3e, 0x50, 0xa2, 0x41, 0xbe, 0xb0, 0xcd, 0x8c, 0xbd,
  0x15, 0x8a, 0x1b, 0x3e, 0x48, 0x28, 0xfb, 0xbd, 0x64, 0xc1, 0xb9, 0x3c,
  0x79, 0xe0, 0x84, 0x3d, 0xa6, 0x80, 0x4f, 0x3e, 0x95, 0xf5, 0x37, 0xbe,
  0xe7, 0x05, 0x24, 0x3d, 0x08, 0x3b, 0x06, 0xbe, 0xe9, 0x91, 0x20, 0xbd,
  0x6f, 0x08, 0x81, 0xbe, 0x5d, 0x30, 0x77, 0x3e, 0x25, 0x0f, 0x8d, 0xbe,
  0xac, 0x91, 0x8a, 0xbd, 0xd2, 0x6e, 0xd2, 0xbd, 0x08, 0xa4, 0x32, 0xbe,
  0xdd, 0xd3, 0x14, 0xbe, 0xa1, 0x01, 0x79, 0x3d, 0x85, 0xe4, 0x48, 0xbe,
  0x39, 0xfd, 0x08, 0x3d, 0xbc, 0xb5, 0xe9, 0xbd, 0xc3, 0x9d, 0x3d, 0x3e,
  0x00, 0xd6, 0x4f, 0xbd, 0x36, 0x19, 0x43, 0x3d, 0x8e, 0x01, 0x63, 0xbe,
  0x4b, 0xec, 0x1f, 0x3e, 0x61, 0xe6, 0x5f, 0x3e, 0x4e, 0xd9, 0xb1, 0x3e,
  0xbb, 0xf8, 0xc3, 0xbd, 0x8e, 0xd5, 0x97, 0x3d, 0xf3, 0xe5, 0xd9, 0x3d,
  0x96, 0x9b, 0x0e, 0x3e, 0x49, 0x0c, 0xcf, 0x3d, 0x8e, 0x36, 0xe3, 0x3d,
  0x8b, 0xbd, 0xb4, 0x3c, 0xd7, 0x4a, 0x28, 0x3d, 0xa4, 0xdf, 0x90, 0xbd,
  0x1a, 0xd6, 0x24, 0x3c, 0xf0, 0x88, 0x1a, 0xbe, 0xbf, 0x09, 0x9b, 0x3d,
  0x0f, 0x46, 0x58, 0xbe, 0xe1, 0x07, 0x00, 0x3e, 0x0f, 0xf7, 0x34, 0xbe,
  0x0a, 0x24, 0xd9, 0x3d, 0x97, 0xc5, 0xa2, 0xbd, 0x43, 0x88, 0x04, 0x3e,
  0xeb, 0xce, 0xff, 0xbb, 0x75, 0xe5, 0x1e, 0x3e, 0xdb, 0xed, 0xbb, 0xbc,
  0xb1, 0x86, 0x49, 0x3e, 0xdf, 0x0c, 0x38, 0xbe, 0x28, 0x6a, 0x20, 0x3e,
  0x55, 0x3b, 0x76, 0x3b, 0x95, 0xcc, 0xbe, 0x3d, 0x75, 0x06, 0x98, 0xbe,
  0xe8, 0xba, 0xd6, 0x3c, 0x30, 0x7b, 0x44, 0xbe, 0x2d, 0xbb, 0xf0, 0x3d,
  0xb8, 0xec, 0x47, 0xbe, 0x2e, 0x65, 0x45, 0x3e, 0x3b, 0xb0, 0xda, 0xbd,
  0x9e, 0x3b, 0xf7, 0x3c, 0x97, 0x65, 0xab, 0x3d, 0xb5, 0x7f, 0x58, 0x3d,
  0x81, 0x22, 0x57, 0x3e, 0x98, 0x73, 0x80, 0x3d, 0x0e, 0x66, 0x07, 0x3e,
  0x7c, 0x75, 0x00, 0x3d, 0xd2, 0xbb, 0x04, 0x3e, 0xf0, 0x2e, 0xb0, 0x3e,
  0xe9, 0xfa, 0x0a, 0xbe, 0xb5, 0x2f, 0x85, 0x3a, 0xc4, 0x72, 0xce, 0xbe,
  0x18, 0xb7, 0x8f, 0x3e, 0x00, 0xad, 0x1d, 0xbc, 0x26, 0x04, 0x8d, 0x3d,
  0x3f, 0x4c, 0xeb, 0xbd, 0xc3, 0x7b, 0x91, 0xbd, 0x2d, 0xfb, 0xcb, 0xbc,
  0x49, 0x10, 0x2d, 0xbe, 0x0e, 0xa6, 0x67, 0x3b, 0x52, 0xad, 0x2a, 0x3e,
  0xfb, 0x7f, 0x81, 0x3e, 0xb5, 0x24, 0xe1, 0x3c, 0xde, 0x02, 0x0f, 0xbe,
  0x21, 0xc9, 0xaa, 0x3d, 0xc0, 0x7b, 0x62, 0xbd, 0xb3, 0x30, 0x17, 0xbb,
  0x8c, 0xa1, 0x0b, 0xbd, 0x45, 0x52, 0xaf, 0x3d, 0x04, 0xe4, 0x40, 0xbe,
  0xf3, 0x3d, 0xbb, 0x3d, 0xb9, 0x3f, 0x3d, 0xbe, 0x68, 0x51, 0x22, 0x3d,
  0xac, 0x72, 0xe7, 0x3c, 0x2e, 0x74, 0x72, 0xbe, 0x32, 0xc4, 0xd8, 0xbd,
  0xdc, 0xbf, 0x12, 0xbb, 0x15, 0x5f, 0xf4, 0xbd, 0x29, 0xc2, 0xff, 0x3d,
  0x2b, 0xb0, 0x0f, 0xbd, 0x3d, 0x00, 0xc0, 0x3d, 0xf1, 0xba, 0x82, 0x3e,
  0xf0, 0x50, 0x00, 0x3b, 0x3c, 0xcb, 0xe4, 0x3b, 0x6c, 0xcb, 0xb8, 0xbd,
  0xde, 0x01, 0xd1, 0x3d, 0xea, 0x5a, 0x36, 0xbe, 0x56, 0x1f, 0x00, 0x3e,
  0x43, 0xc8, 0x32, 0xbd, 0x69, 0x4e, 0x9d, 0x3e, 0xec, 0xa3, 0x17, 0x3e,
  0xd9, 0xf6, 0x79, 0xbe, 0x68, 0xcf, 0x30, 0xbd, 0x92, 0x03, 0xc8, 0xbe,
  0x40, 0x2a, 0xb5, 0xbd, 0xff, 0xac, 0xec, 0xbd, 0x50, 0xda, 0x39, 0x3e,
  0x83, 0x16, 0x2a, 0x3d, 0x3c, 0x53, 0x9a, 0x3d, 0x9b, 0xe4, 0x8e, 0xbc,
  0x7f, 0x03, 0xa8, 0x3d, 0xb6, 0xb7, 0x36, 0xbe, 0xae, 0x53, 0x02, 0xbe,
  0x7d, 0xb5, 0x46, 0x3e, 0xf8, 0x6e, 0x46, 0xbe, 0x0c, 0x83, 0x87, 0x3e,
  0x63, 0x84, 0xff, 0xbc, 0x6a, 0x45, 0xa4, 0xbe, 0x22, 0x03, 0x93, 0xbd,
  0x63, 0x15, 0x57, 0x3a, 0xd1, 0x9f, 0xb4, 0x3d, 0xd1, 0xf4, 0x68, 0xbd,
  0xf8, 0x68, 0xe6, 0x3d, 0x1d, 0x49, 0x86, 0xbd, 0xc9, 0xe3, 0x9a, 0x3c,
  0x1b, 0xb1, 0x33, 0x3d, 0x09, 0x45, 0xb9, 0x3c, 0x02, 0x1a, 0x2d, 0x3e,
  0x77, 0x17, 0x0d, 0xbe, 0xa6, 0xac, 0x8a, 0x3d, 0x16, 0xd2, 0x62, 0xbe,
  0xa0, 0x5c, 0xa1, 0x3e, 0x36, 0x56, 0x2f, 0xbe, 0xca, 0x31, 0x6d, 0xbe,
  0x7e, 0xc5, 0x6a, 0xbd, 0xf6, 0x03, 0x83, 0xbd, 0x07, 0x8b, 0x01, 0x3e,
  0x2a, 0xae, 0x21, 0x3d, 0xe2, 0x99, 0x9d, 0xbd, 0x68, 0x8d, 0xe1, 0x3d,
  0xaf, 0x09, 0x63, 0xbc, 0xf7, 0xe0, 0x9f, 0x3d, 0xea, 0xf1, 0x09, 0x3b,
  0xe3, 0x63, 0x10, 0x3e, 0x96, 0x68, 0x2b, 0xbe, 0x2e, 0xf2, 0xea, 0x3d,
  0x45, 0x55, 0xd3, 0xbe, 0xde, 0x58, 0xdd, 0xbd, 0xbf, 0x13, 0x29, 0xbe,
  0xf2, 0x3a, 0xca, 0xbe, 0x1f, 0xf8, 0x2e, 0x3d, 0x69, 0x48, 0x09, 0x3e,
  0xc6, 0x8b, 0x87, 0x3e, 0x07, 0x1d, 0x7b, 0xbd, 0xfe, 0xb4, 0xbb, 0x3d,
  0xa4, 0x5f, 0xc7, 0x3d, 0x4d, 0x0a, 0xf2, 0x3c, 0x63, 0xf6, 0x0f, 0xbd,
  0xa6, 0x3a, 0xf2, 0xbb, 0xe1, 0x68, 0x04, 0x3e, 0x8e, 0xc0, 0x7e, 0xbd,
  0xc2, 0xf8, 0x50, 0x3d, 0xb6, 0x9e, 0x27, 0xbe, 0xa4, 0x2f, 0x81, 0x3e,
  0x10, 0xa0, 0x2f, 0xbe, 0x59, 0xcf, 0x92, 0xbe, 0xc7, 0xe6, 0x3f, 0x3d,
  0x9b, 0x4f, 0xe8, 0xbe, 0x9f, 0x55, 0x14, 0x3e, 0x87, 0xc0, 0x36, 0xba,
  0xd8, 0xe2, 0x9a, 0xbe, 0x0c, 0x12, 0x52, 0xbd, 0x2b, 0x29, 0x20, 0xbe,
  0xa0, 0x6d, 0xf3, 0xbd, 0x95, 0x5f, 0xc6, 0xbd, 0xdd, 0xae, 0x0e, 0x3d,
  0xe9, 0x36, 0x08, 0xbe, 0x85, 0xf2, 0xee, 0xb8, 0x30, 0xe6, 0x00, 0xbf,
  0x10, 0x67, 0xc0, 0xbd, 0x5d, 0xc7, 0xb1, 0x3d, 0xbf, 0xdd, 0x13, 0xbf,
  0xd4, 0x6e, 0x04, 0x3e, 0x16, 0x87, 0x58, 0xbe, 0xc8, 0x24, 0x6e, 0x3e,
  0x90, 0x42, 0xbe, 0xbd, 0x56, 0x8c, 0x06, 0xbb, 0xa5, 0x9d, 0xf0, 0xbe,
  0x2a, 0x0e, 0x52, 0xbe, 0xa9, 0xbb, 0xd5, 0xbe, 0x95, 0x06, 0x12, 0xbd,
  0xe3, 0x32, 0x0e, 0xbf, 0x7e, 0xba, 0x1a, 0xbe, 0xc6, 0xc2, 0x0c, 0x3e,
  0x87, 0x5b, 0x0f, 0xbf, 0x16, 0x2a, 0xba, 0xbc, 0xec, 0x42, 0xb1, 0x3d,
  0x07, 0x8a, 0xda, 0xbe, 0xfe, 0x31, 0xf5, 0xbc, 0x9d, 0xc7, 0x56, 0xbf,
  0x35, 0x94, 0x27, 0x3d, 0xd3, 0x63, 0xbc, 0x3e, 0x3c, 0xb2, 0x30, 0x3e,
  0x06, 0x36, 0x97, 0x3f, 0x72, 0x62, 0x84, 0x3e, 0x9a, 0x85, 0x3a, 0xbd,
  0x52, 0x92, 0xed, 0x3d, 0x9b, 0xf8, 0x43, 0x3f, 0x8a, 0x1e, 0x84, 0x3d,
  0x5d, 0x09, 0x14, 0xbe, 0xc3, 0x00, 0xfd, 0x3d, 0x4b, 0xea, 0x0c, 0x3e,
  0x5c, 0xc8, 0x95, 0xbd, 0xde, 0xb7, 0xe2, 0x3e, 0x8d, 0x09, 0x78, 0xbd,
  0x1d, 0x0e, 0x19, 0x3f, 0xba, 0x0b, 0x31, 0xbe, 0xd7, 0xd4, 0x8a, 0x3e,
  0x13, 0xf8, 0x51, 0xbe, 0x39, 0xa4, 0x63, 0x3f, 0xec, 0x80, 0x6f, 0xbd,
  0xe9, 0x28, 0xff, 0x3d, 0x28, 0x6b, 0x34, 0xbe, 0x60, 0xed, 0xdc, 0x3e,
  0x8a, 0xf8, 0x60, 0x3d, 0x2a, 0x50, 0x0f, 0xbe, 0x55, 0xba, 0xce, 0x3d,
  0x2a, 0x13, 0x66, 0x3d, 0x3a, 0x9d, 0x76, 0xbd, 0x69, 0xbd, 0x8e, 0x3e,
  0x5e, 0xf0, 0x77, 0xbc, 0xfc, 0x55, 0xa0, 0x3e, 0x35, 0xaa, 0x0b, 0xbe,
  0x43, 0x34, 0xf8, 0x3d, 0x57, 0x15, 0x1f, 0xbe, 0x3b, 0x3c, 0x6d, 0x3f,
  0x68, 0xbf, 0x4a, 0xbd, 0x65, 0x05, 0x6a, 0x3d, 0x19, 0xba, 0xc7, 0xbe,
  0x57, 0xa3, 0xfd, 0x3e, 0x8a, 0x33, 0x29, 0x3e, 0x2f, 0x66, 0x1b, 0xbe,
  0x2d, 0xf6, 0xde, 0xbc, 0x00, 0x23, 0x8c, 0x3d, 0x43, 0x6b, 0x6b, 0x3e,
  0xb1, 0x11, 0x39, 0x3e, 0xc5, 0x64, 0x08, 0x3d, 0xea, 0x6a, 0xba, 0x3e,
  0x65, 0x6b, 0x7d, 0xbd, 0x6b, 0x0d, 0x13, 0x3e, 0xae, 0x98, 0x86, 0xbe,
  0x24, 0xad, 0x6d, 0x3f, 0x45, 0xc1, 0x97, 0xbd, 0x3e, 0xab, 0xd5, 0x3d,
  0x3f, 0x4c, 0x00, 0x3e, 0x99, 0x07, 0xf3, 0x3e, 0xb4, 0x3c, 0x31, 0xbd,
  0x8f, 0xd5, 0x45, 0xbe, 0x6e, 0x5e, 0x03, 0xbe, 0x4c, 0x32, 0xde, 0xbb,
  0x65, 0x2a, 0xa5, 0x3c, 0xd0, 0x3a, 0x80, 0x3d, 0xfc, 0xc0, 0xf2, 0x3d,
  0xde, 0x68, 0x00, 0x3f, 0x9d, 0x67, 0xef, 0xbc, 0xf1, 0xf1, 0x43, 0x3e,
  0x46, 0x11, 0xbd, 0x3d, 0x0c, 0x7d, 0xd3, 0x3e, 0xfa, 0xe7, 0x15, 0xbd,
  0x52, 0xa2, 0x6d, 0xbc, 0xa3, 0x5d, 0xc8, 0xbd, 0x8f, 0xc3, 0xc2, 0x3e,
  0xe2, 0xa2, 0x08, 0xbe, 0x97, 0x2b, 0xf5, 0xbd, 0x03, 0x11, 0x7f, 0x3e,
  0x4f, 0xd1, 0xce, 0x3d, 0x68, 0xda, 0xab, 0x3d, 0xc5, 0x2f, 0xa5, 0x3e,
  0xbb, 0xdd, 0x35, 0xbe, 0x33, 0xb3, 0xc6, 0x3d, 0x1a, 0x9d, 0x64, 0xbe,
  0x10, 0xf2, 0xeb, 0x3c, 0x94, 0xf5, 0xa0, 0x3c, 0x52, 0x99, 0x3a, 0x3f,
  0x0f, 0xb5, 0x80, 0xba, 0x3e, 0xf3, 0x6f, 0x3e, 0xd3, 0xbb, 0xf1, 0xbc,
  0x22, 0x36, 0x8d, 0x3e, 0x8e, 0x88, 0x4b, 0xbd, 0x8d, 0x52, 0xcb, 0xbd,
  0x27, 0x8a, 0x38, 0x3e, 0x48, 0xc9, 0x88, 0x3e, 0x05, 0xc8, 0xbb, 0xbd,
  0x7b, 0xcd, 0x8b, 0x3e, 0x75, 0xfc, 0xd3, 0xbc, 0xc0, 0x23, 0xd5, 0x3e,
  0xf0, 0x89, 0x01, 0xbe, 0xf4, 0x83, 0x48, 0x3e, 0xa9, 0xfb, 0x0a, 0xbe,
  0xa8, 0x37, 0x24, 0x3f, 0xe0, 0xc4, 0x8b, 0xbc, 0x02, 0xcf, 0x5e, 0x3e,
  0x32, 0xa6, 0xd2, 0xbd, 0x60, 0xe7, 0xb4, 0x3e, 0xfa, 0x94, 0xb9, 0xbd,
  0xcd, 0xce, 0xa3, 0xbc, 0x7b, 0x1d, 0xd9, 0x3d, 0xa5, 0x6b, 0x0b, 0xbe,
  0xa1, 0x6f, 0x42, 0xbc, 0x1f, 0xeb, 0xa7, 0x3e, 0x9a, 0x44, 0x1d, 0xbe,
  0x86, 0x3a, 0xd6, 0x3e, 0x82, 0x98, 0x3a, 0xbe, 0xd4, 0x8f, 0x25, 0x3e,
  0xf7, 0xef, 0xe1, 0x3d, 0x1e, 0x6a, 0xd3, 0xbd, 0x74, 0x35, 0x93, 0xbd,
  0x65, 0xcb, 0x25, 0x3d, 0x25, 0xe7, 0x8a, 0xbd, 0x52, 0x70, 0xc0, 0x3d,
  0xbc, 0xbd, 0x0e, 0x3e, 0x96, 0x60, 0x72, 0xbd, 0xc5, 0xa9, 0x8a, 0x3d,
  0xe5, 0xf8, 0x40, 0x3d, 0xe5, 0x74, 0x80, 0xbe, 0x27, 0x39, 0x8a, 0xbc,
  0x87, 0x71, 0xa6, 0xbd, 0xbf, 0x2b, 0x91, 0xbe, 0x86, 0x13, 0x45, 0x3e,
  0xe3, 0xf8, 0x12, 0x3e, 0xa2, 0x37, 0xbd, 0xbd, 0x5f, 0x64, 0xf1, 0x3c,
  0x3c, 0x93, 0xc3, 0xbd, 0xb2, 0x69, 0x1b, 0x3d, 0x48, 0x0d, 0xa5, 0xbc,
  0xe0, 0x2f, 0xbf, 0x3d, 0x43, 0x0a, 0xa9, 0x3e, 0x12, 0x56, 0x1b, 0xbd,
  0x4b, 0x7e, 0x22, 0xbe, 0xe2, 0xa4, 0x7b, 0x3d, 0x76, 0xcc, 0xaf, 0xbd,
  0x66, 0x5a, 0x22, 0x3d, 0x9d, 0x92, 0x85, 0x3e, 0x39, 0x04, 0x79, 0xbd,
  0xe8, 0xbd, 0x05, 0x3e, 0xf6, 0xf2, 0x15, 0x3e, 0xa9, 0xc8, 0x57, 0xbd,
  0x10, 0x71, 0x37, 0x3c, 0xc7, 0x99, 0xad, 0xbd, 0xc3, 0xc8, 0x18, 0xbe,
  0x84, 0xb7, 0xb1, 0x3d, 0x54, 0x13, 0xce, 0xbd, 0x36, 0xa8, 0xba, 0x3d,
  0x97, 0x96, 0xfe, 0xbd, 0x9d, 0xd0, 0x14, 0x3d, 0x6a, 0x69, 0x61, 0x3d,
  0xd3, 0xdd, 0x64, 0xba, 0xd7, 0x6d, 0x10, 0xbe, 0xba, 0x26, 0xd8, 0x3d,
  0x05, 0x8d, 0x92, 0x3c, 0x6b, 0x29, 0x2f, 0xbe, 0x06, 0xfc, 0x05, 0xbe,
  0x88, 0xc3, 0x7d, 0x3e, 0x41, 0xe4, 0x2d, 0xbd, 0xaa, 0xe1, 0x97, 0xbe,
  0x36, 0x83, 0xcd, 0xbe, 0xf8, 0xfc, 0xd8, 0x3e, 0x13, 0x5f, 0x32, 0x3e,
  0xd4, 0xde, 0x08, 0xbe, 0xe1, 0xb2, 0x82, 0x3d, 0xb1, 0x29, 0xb2, 0x3d,
  0x9c, 0xd6, 0x44, 0x3e, 0xb2, 0xc3, 0x0f, 0xbd, 0x8a, 0xfa, 0xfd, 0xbd,
  0xb3, 0x24, 0x8a, 0xbd, 0xd1, 0xff, 0x8c, 0xbe, 0x81, 0x44, 0x29, 0x3e,
  0xea, 0x7e, 0x15, 0x3e, 0x1a, 0xe5, 0x29, 0x3e, 0x3b, 0x74, 0x8b, 0x3c,
  0x02, 0x39, 0xf9, 0xbd, 0xba, 0x25, 0x16, 0xbd, 0xdc, 0x83, 0x9c, 0x3d,
  0x4c, 0xab, 0xb2, 0xbd, 0x0e, 0xee, 0xba, 0xbc, 0x75, 0x3d, 0x19, 0xbe,
  0x81, 0xe4, 0xcd, 0x3d, 0x21, 0xe5, 0x11, 0xbc, 0xd2, 0x40, 0x8d, 0xbd,
  0xab, 0xcd, 0x3c, 0xbe, 0xaa, 0x0f, 0xc0, 0x3d, 0x35, 0xe3, 0xc6, 0x3c,
  0xf4, 0x5a, 0xda, 0xbd, 0x28, 0xcc, 0x22, 0xbe, 0x89, 0x56, 0xd4, 0xbd,
  0xab, 0xc5, 0xed, 0xbc, 0xec, 0x08, 0x98, 0xbd, 0x92, 0x0a, 0xc0, 0xbc,
  0xb8, 0x13, 0xb9, 0x3e, 0x79, 0x6c, 0x29, 0x3e, 0x83, 0x7a, 0xcb, 0x3d,
  0xdd, 0x44, 0x19, 0xbe, 0x86, 0x48, 0x84, 0xbe, 0x48, 0xea, 0x9c, 0x3e,
  0x21, 0xb1, 0x47, 0xbe, 0x86, 0x8c, 0x8d, 0xbe, 0x7f, 0xa8, 0x4e, 0x3e,
  0xbe, 0x36, 0x09, 0x3c, 0x9c, 0x4b, 0xd8, 0xbd, 0xe8, 0x4f, 0x9a, 0xbb,
  0x3e, 0xc9, 0x5b, 0xbe, 0x8f, 0x23, 0x8b, 0x3d, 0xf3, 0xe7, 0xc6, 0x3c,
  0x5a, 0xc3, 0xb8, 0x3d, 0x31, 0x02, 0x07, 0x3e, 0x15, 0xe0, 0x50, 0x3e,
  0x9b, 0x13, 0x2c, 0x3d, 0x96, 0xd2, 0xae, 0xbd, 0x25, 0x6e, 0xcb, 0x3d,
  0x79, 0x6c, 0x8f, 0x3d, 0xad, 0xc8, 0x2d, 0xbe, 0x9e, 0xb8, 0x86, 0xbd,
  0x69, 0xcc, 0xaf, 0x3d, 0x1f, 0x1e, 0xac, 0xbe, 0x4a, 0xfe, 0xff, 0xff,
  0x10, 0x00, 0x00, 0x00, 0x05, 0x00, 0x00, 0x00, 0x14, 0x00, 0x00, 0x00,
  0x2c, 0x00, 0x00, 0x00, 0x02, 0x00, 0x00, 0x00, 0x10, 0x00, 0x00, 0x00,
  0x70, 0x00, 0x00, 0x00, 0x17, 0x00, 0x00, 0x00, 0x73, 0x65, 0x71, 0x75,
  0x65, 0x6e, 0x74, 0x69, 0x61, 0x6c, 0x2f, 0x64, 0x65, 0x6e, 0x73, 0x65,
  0x2f, 0x4d, 0x61, 0x74, 0x4d, 0x75, 0x6c, 0x00, 0x38, 0xfe, 0xff, 0xff,
  0x2e, 0xff, 0xff, 0xff, 0x04, 0x00, 0x00, 0x00, 0x08, 0x00, 0x00, 0x00,
  0xff, 0xff, 0xff, 0xff, 0x70, 0x00, 0x00, 0x00, 0x00, 0x00, 0x0e, 0x00,
  0x18, 0x00, 0x08, 0x00, 0x07, 0x00, 0x0c, 0x00, 0x10, 0x00, 0x14, 0x00,
  0x0e, 0x00, 0x00, 0x00, 0x00, 0x00, 0x00, 0x02, 0x10, 0x00, 0x00, 0x00,
  0x04, 0x00, 0x00, 0x00, 0x10, 0x00, 0x00, 0x00, 0x2c, 0x00, 0x00, 0x00,
  0x01, 0x00, 0x00, 0x00, 0x02, 0x00, 0x00, 0x00, 0x18, 0x00, 0x00, 0x00,
  0x73, 0x65, 0x71, 0x75, 0x65, 0x6e, 0x74, 0x69, 0x61, 0x6c, 0x2f, 0x66,
  0x6c, 0x61, 0x74, 0x74, 0x65, 0x6e, 0x2f, 0x43, 0x6f, 0x6e, 0x73, 0x74,
  0x00, 0x00, 0x00, 0x00, 0xa0, 0xfe, 0xff, 0xff, 0x96, 0xff, 0xff, 0xff,
  0x04, 0x00, 0x00, 0x00, 0x0c, 0x00, 0x00, 0x00, 0x68, 0x42, 0xa5, 0xbe,
  0xc8, 0xf3, 0x2d, 0xbe, 0xdc, 0xea, 0x7c, 0x3e, 0x0a, 0xff, 0xff, 0xff,
  0x10, 0x00, 0x00, 0x00, 0x03, 0x00, 0x00, 0x00, 0x10, 0x00, 0x00, 0x00,
  0x3c, 0x00, 0x00, 0x00, 0x01, 0x00, 0x00, 0x00, 0x03, 0x00, 0x00, 0x00,
  0x29, 0x00, 0x00, 0x00, 0x73, 0x65, 0x71, 0x75, 0x65, 0x6e, 0x74, 0x69,
  0x61, 0x6c, 0x2f, 0x64, 0x65, 0x6e, 0x73, 0x65, 0x5f, 0x31, 0x2f, 0x42,
  0x69, 0x61, 0x73, 0x41, 0x64, 0x64, 0x2f, 0x52, 0x65, 0x61, 0x64, 0x56,
  0x61, 0x72, 0x69, 0x61, 0x62, 0x6c, 0x65, 0x4f, 0x70, 0x00, 0x00, 0x00,
  0x60, 0xff, 0xff, 0xff, 0x00, 0x00, 0x06, 0x00, 0x08, 0x00, 0x04, 0x00,
  0x06, 0x00, 0x00, 0x00, 0x04, 0x00, 0x00, 0x00, 0x40, 0x00, 0x00, 0x00,
  0x74, 0x97, 0x70, 0x3f, 0x73, 0x7e, 0xe6, 0x3e, 0x86, 0x06, 0x9b, 0xbe,
  0x86, 0x37, 0x1f, 0xbf, 0x89, 0xfd, 0x27, 0x3d, 0x08, 0xd4, 0x89, 0x3d,
  0xd4, 0xac, 0xe1, 0xbe, 0x48, 0x7f, 0x74, 0x3f, 0x5e, 0xdf, 0x3e, 0xbe,
  0x9f, 0x4f, 0x4b, 0x3f, 0xd5, 0x41, 0x9c, 0xbf, 0x2e, 0x88, 0x26, 0x3f,
  0x28, 0x80, 0x8b, 0x3e, 0x3d, 0xe2, 0x90, 0xbf, 0x00, 0x7b, 0x3a, 0x3f,
  0x97, 0x29, 0x71, 0xbe, 0xae, 0xff, 0xff, 0xff, 0x10, 0x00, 0x00, 0x00,
  0x02, 0x00, 0x00, 0x00, 0x10, 0x00, 0x00, 0x00, 0x3c, 0x00, 0x00, 0x00,
  0x01, 0x00, 0x00, 0x00, 0x10, 0x00, 0x00, 0x00, 0x27, 0x00, 0x00, 0x00,
  0x73, 0x65, 0x71, 0x75, 0x65, 0x6e, 0x74, 0x69, 0x61, 0x6c, 0x2f, 0x64,
  0x65, 0x6e, 0x73, 0x65, 0x2f, 0x42, 0x69, 0x61, 0x73, 0x41, 0x64, 0x64,
  0x2f, 0x52, 0x65, 0x61, 0x64, 0x56, 0x61, 0x72, 0x69, 0x61, 0x62, 0x6c,
  0x65, 0x4f, 0x70, 0x00, 0x04, 0x00, 0x06, 0x00, 0x04, 0x00, 0x00, 0x00,
  0x00, 0x00, 0x0e, 0x00, 0x14, 0x00, 0x04, 0x00, 0x00, 0x00, 0x08, 0x00,
  0x0c, 0x00, 0x10, 0x00, 0x0e, 0x00, 0x00, 0x00, 0x10, 0x00, 0x00, 0x00,
  0x01, 0x00, 0x00, 0x00, 0x1c, 0x00, 0x00, 0x00, 0x2c, 0x00, 0x00, 0x00,
  0x04, 0x00, 0x00, 0x00, 0x01, 0x00, 0x00, 0x00, 0x40, 0x00, 0x00, 0x00,
  0x03, 0x00, 0x00, 0x00, 0x01, 0x00, 0x00, 0x00, 0x0c, 0x00, 0x00, 0x00,
  0x63, 0x6f, 0x6e, 0x76, 0x32, 0x64, 0x5f, 0x69, 0x6e, 0x70, 0x75, 0x74,
  0x00, 0x00, 0x00, 0x00, 0xfc, 0xff, 0xff, 0xff, 0x04, 0x00, 0x04, 0x00,
  0x04, 0x00, 0x00, 0x00
};

unsigned int model_tflite_len = 12316;// Fill the int in `src/model.cc` here